{
  "version": "1.0",
  "truncation": null,
  "padding": null,
  "added_tokens": [
    {
      "id": 0,
      "content": "[UNK]",
      "single_word": false,
      "lstrip": false,
      "rstrip": false,
      "normalized": false,
      "special": true
    },
    {
      "id": 1,
      "content": "[CLS]",
      "single_word": false,
      "lstrip": false,
      "rstrip": false,
      "normalized": false,
      "special": true
    },
    {
      "id": 2,
      "content": "[SEP]",
      "single_word": false,
      "lstrip": false,
      "rstrip": false,
      "normalized": false,
      "special": true
    },
    {
      "id": 3,
      "content": "[PAD]",
      "single_word": false,
      "lstrip": false,
      "rstrip": false,
      "normalized": false,
      "special": true
    },
    {
      "id": 4,
      "content": "[MASK]",
      "single_word": false,
      "lstrip": false,
      "rstrip": false,
      "normalized": false,
      "special": true
    }
  ],
  "normalizer": null,
  "pre_tokenizer": {
    "type": "Whitespace"
  },
  "post_processor": null,
  "decoder": null,
  "model": {
    "type": "BPE",
    "dropout": null,
    "unk_token": "[UNK]",
    "continuing_subword_prefix": null,
    "end_of_word_suffix": null,
    "fuse_unk": false,
    "byte_fallback": false,
    "vocab": {
      "[UNK]": 0,
      "[CLS]": 1,
      "[SEP]": 2,
      "[PAD]": 3,
      "[MASK]": 4,
      "\u0000": 5,
      "!": 6,
      "\"": 7,
      "#": 8,
      "$": 9,
      "%": 10,
      "&": 11,
      "'": 12,
      "(": 13,
      ")": 14,
      "*": 15,
      "+": 16,
      ",": 17,
      "-": 18,
      ".": 19,
      "/": 20,
      "0": 21,
      "1": 22,
      "2": 23,
      "3": 24,
      "4": 25,
      "5": 26,
      "6": 27,
      "7": 28,
      "8": 29,
      "9": 30,
      ":": 31,
      ";": 32,
      "<": 33,
      "=": 34,
      ">": 35,
      "?": 36,
      "@": 37,
      "A": 38,
      "B": 39,
      "C": 40,
      "D": 41,
      "E": 42,
      "F": 43,
      "G": 44,
      "H": 45,
      "I": 46,
      "J": 47,
      "K": 48,
      "L": 49,
      "M": 50,
      "N": 51,
      "O": 52,
      "P": 53,
      "Q": 54,
      "R": 55,
      "S": 56,
      "T": 57,
      "U": 58,
      "V": 59,
      "W": 60,
      "X": 61,
      "Y": 62,
      "Z": 63,
      "[": 64,
      "\\": 65,
      "]": 66,
      "^": 67,
      "_": 68,
      "`": 69,
      "a": 70,
      "b": 71,
      "c": 72,
      "d": 73,
      "e": 74,
      "f": 75,
      "g": 76,
      "h": 77,
      "i": 78,
      "j": 79,
      "k": 80,
      "l": 81,
      "m": 82,
      "n": 83,
      "o": 84,
      "p": 85,
      "q": 86,
      "r": 87,
      "s": 88,
      "t": 89,
      "u": 90,
      "v": 91,
      "w": 92,
      "x": 93,
      "y": 94,
      "z": 95,
      "{": 96,
      "|": 97,
      "}": 98,
      "~": 99,
      "": 100,
      "": 101,
      "": 102,
      "": 103,
      "": 104,
      "": 105,
      "": 106,
      "": 107,
      "": 108,
      "": 109,
      "": 110,
      "": 111,
      "": 112,
      "": 113,
      "": 114,
      "": 115,
      "": 116,
      "": 117,
      "": 118,
      "": 119,
      "": 120,
      "¡": 121,
      "¢": 122,
      "£": 123,
      "¥": 124,
      "¦": 125,
      "§": 126,
      "¨": 127,
      "©": 128,
      "ª": 129,
      "«": 130,
      "¬": 131,
      "­": 132,
      "®": 133,
      "¯": 134,
      "°": 135,
      "±": 136,
      "²": 137,
      "³": 138,
      "´": 139,
      "µ": 140,
      "¶": 141,
      "·": 142,
      "¸": 143,
      "¹": 144,
      "º": 145,
      "»": 146,
      "¼": 147,
      "½": 148,
      "¾": 149,
      "¿": 150,
      "À": 151,
      "Á": 152,
      "Â": 153,
      "Ã": 154,
      "Ä": 155,
      "Å": 156,
      "Æ": 157,
      "Ç": 158,
      "È": 159,
      "É": 160,
      "Ê": 161,
      "Ë": 162,
      "Ì": 163,
      "Í": 164,
      "Î": 165,
      "Ñ": 166,
      "Ó": 167,
      "Ô": 168,
      "Õ": 169,
      "Ö": 170,
      "×": 171,
      "Ø": 172,
      "Ú": 173,
      "Ü": 174,
      "Þ": 175,
      "ß": 176,
      "à": 177,
      "á": 178,
      "â": 179,
      "ã": 180,
      "ä": 181,
      "å": 182,
      "æ": 183,
      "ç": 184,
      "è": 185,
      "é": 186,
      "ê": 187,
      "ë": 188,
      "ì": 189,
      "í": 190,
      "î": 191,
      "ï": 192,
      "ð": 193,
      "ñ": 194,
      "ò": 195,
      "ó": 196,
      "ô": 197,
      "õ": 198,
      "ö": 199,
      "÷": 200,
      "ø": 201,
      "ù": 202,
      "ú": 203,
      "û": 204,
      "ü": 205,
      "ý": 206,
      "þ": 207,
      "ÿ": 208,
      "Ā": 209,
      "ā": 210,
      "Ă": 211,
      "ă": 212,
      "ą": 213,
      "Ć": 214,
      "ć": 215,
      "Č": 216,
      "č": 217,
      "ď": 218,
      "Đ": 219,
      "đ": 220,
      "Ē": 221,
      "ē": 222,
      "ĕ": 223,
      "ė": 224,
      "ę": 225,
      "ě": 226,
      "Ğ": 227,
      "ğ": 228,
      "ġ": 229,
      "ħ": 230,
      "ĩ": 231,
      "Ī": 232,
      "ī": 233,
      "İ": 234,
      "ı": 235,
      "ļ": 236,
      "ľ": 237,
      "Ł": 238,
      "ł": 239,
      "ń": 240,
      "ņ": 241,
      "ň": 242,
      "Ŋ": 243,
      "ŋ": 244,
      "Ō": 245,
      "ō": 246,
      "ŏ": 247,
      "ő": 248,
      "œ": 249,
      "ŗ": 250,
      "ř": 251,
      "Ś": 252,
      "ś": 253,
      "Ş": 254,
      "ş": 255,
      "Š": 256,
      "š": 257,
      "Ţ": 258,
      "ţ": 259,
      "ť": 260,
      "ũ": 261,
      "Ū": 262,
      "ū": 263,
      "ŭ": 264,
      "ű": 265,
      "ŵ": 266,
      "Ŷ": 267,
      "ŷ": 268,
      "ź": 269,
      "Ż": 270,
      "ż": 271,
      "Ž": 272,
      "ž": 273,
      "ſ": 274,
      "Ɖ": 275,
      "Ǝ": 276,
      "Ə": 277,
      "ƒ": 278,
      "Ɣ": 279,
      "ơ": 280,
      "ư": 281,
      "ǎ": 282,
      "ǐ": 283,
      "ǒ": 284,
      "ǔ": 285,
      "ǝ": 286,
      "ǣ": 287,
      "ǵ": 288,
      "Ș": 289,
      "ș": 290,
      "Ț": 291,
      "ț": 292,
      "ȳ": 293,
      "Ƀ": 294,
      "ɐ": 295,
      "ɑ": 296,
      "ɒ": 297,
      "ɓ": 298,
      "ɔ": 299,
      "ɕ": 300,
      "ə": 301,
      "ɚ": 302,
      "ɛ": 303,
      "ɡ": 304,
      "ɢ": 305,
      "ɣ": 306,
      "ɤ": 307,
      "ɦ": 308,
      "ɨ": 309,
      "ɪ": 310,
      "ɬ": 311,
      "ɯ": 312,
      "ɰ": 313,
      "ɲ": 314,
      "ɴ": 315,
      "ɹ": 316,
      "ɾ": 317,
      "ʀ": 318,
      "ʁ": 319,
      "ʂ": 320,
      "ʃ": 321,
      "ʇ": 322,
      "ʊ": 323,
      "ʌ": 324,
      "ʍ": 325,
      "ʎ": 326,
      "ʒ": 327,
      "ʔ": 328,
      "ʕ": 329,
      "ʖ": 330,
      "ʙ": 331,
      "ʞ": 332,
      "ʟ": 333,
      "ʰ": 334,
      "ʲ": 335,
      "ʹ": 336,
      "ʻ": 337,
      "ʼ": 338,
      "ʾ": 339,
      "ʿ": 340,
      "ˀ": 341,
      "ˆ": 342,
      "ˈ": 343,
      "ˌ": 344,
      "ː": 345,
      "˙": 346,
      "˚": 347,
      "˜": 348,
      "̀": 349,
      "́": 350,
      "̂": 351,
      "̃": 352,
      "̄": 353,
      "̅": 354,
      "̆": 355,
      "̈": 356,
      "̊": 357,
      "̑": 358,
      "̝": 359,
      "̞": 360,
      "̠": 361,
      "̥": 362,
      "̯": 363,
      "̱": 364,
      "͜": 365,
      "͝": 366,
      "͡": 367,
      ";": 368,
      "΄": 369,
      "Α": 370,
      "Β": 371,
      "Γ": 372,
      "Δ": 373,
      "Ε": 374,
      "Ζ": 375,
      "Η": 376,
      "Θ": 377,
      "Ι": 378,
      "Κ": 379,
      "Λ": 380,
      "Μ": 381,
      "Ν": 382,
      "Ξ": 383,
      "Ο": 384,
      "Π": 385,
      "Ρ": 386,
      "Σ": 387,
      "Τ": 388,
      "Υ": 389,
      "Φ": 390,
      "Χ": 391,
      "Ψ": 392,
      "Ω": 393,
      "ά": 394,
      "έ": 395,
      "ή": 396,
      "ί": 397,
      "α": 398,
      "β": 399,
      "γ": 400,
      "δ": 401,
      "ε": 402,
      "ζ": 403,
      "η": 404,
      "θ": 405,
      "ι": 406,
      "κ": 407,
      "λ": 408,
      "μ": 409,
      "ν": 410,
      "ξ": 411,
      "ο": 412,
      "π": 413,
      "ρ": 414,
      "ς": 415,
      "σ": 416,
      "τ": 417,
      "υ": 418,
      "φ": 419,
      "χ": 420,
      "ψ": 421,
      "ω": 422,
      "ϊ": 423,
      "ό": 424,
      "ύ": 425,
      "ώ": 426,
      "Ϝ": 427,
      "ϲ": 428,
      "Ϲ": 429,
      "Ё": 430,
      "Ђ": 431,
      "Ѕ": 432,
      "І": 433,
      "Ј": 434,
      "А": 435,
      "Б": 436,
      "В": 437,
      "Г": 438,
      "Д": 439,
      "Е": 440,
      "Ж": 441,
      "З": 442,
      "И": 443,
      "К": 444,
      "Л": 445,
      "М": 446,
      "Н": 447,
      "О": 448,
      "П": 449,
      "Р": 450,
      "С": 451,
      "Т": 452,
      "У": 453,
      "Ф": 454,
      "Х": 455,
      "Ц": 456,
      "Ч": 457,
      "Ш": 458,
      "Э": 459,
      "Ю": 460,
      "Я": 461,
      "а": 462,
      "б": 463,
      "в": 464,
      "г": 465,
      "д": 466,
      "е": 467,
      "ж": 468,
      "з": 469,
      "и": 470,
      "й": 471,
      "к": 472,
      "л": 473,
      "м": 474,
      "н": 475,
      "о": 476,
      "п": 477,
      "р": 478,
      "с": 479,
      "т": 480,
      "у": 481,
      "ф": 482,
      "х": 483,
      "ц": 484,
      "ч": 485,
      "ш": 486,
      "щ": 487,
      "ъ": 488,
      "ы": 489,
      "ь": 490,
      "э": 491,
      "ю": 492,
      "я": 493,
      "ё": 494,
      "є": 495,
      "ѕ": 496,
      "і": 497,
      "ї": 498,
      "ј": 499,
      "љ": 500,
      "њ": 501,
      "ћ": 502,
      "ѡ": 503,
      "ѵ": 504,
      "Ғ": 505,
      "Ү": 506,
      "һ": 507,
      "Ӏ": 508,
      "ӓ": 509,
      "ә": 510,
      "Ӧ": 511,
      "ӧ": 512,
      "ө": 513,
      "ԁ": 514,
      "Ԍ": 515,
      "ԛ": 516,
      "ԝ": 517,
      "Ա": 518,
      "Լ": 519,
      "Ձ": 520,
      "Յ": 521,
      "Տ": 522,
      "ա": 523,
      "զ": 524,
      "է": 525,
      "ի": 526,
      "խ": 527,
      "կ": 528,
      "հ": 529,
      "մ": 530,
      "յ": 531,
      "ն": 532,
      "շ": 533,
      "ո": 534,
      "չ": 535,
      "ս": 536,
      "վ": 537,
      "ր": 538,
      "ց": 539,
      "փ": 540,
      "ք": 541,
      "օ": 542,
      "֙": 543,
      "֤": 544,
      "ְ": 545,
      "ֱ": 546,
      "ִ": 547,
      "ֵ": 548,
      "ַ": 549,
      "ָ": 550,
      "ֹ": 551,
      "ּ": 552,
      "ֽ": 553,
      "ֿ": 554,
      "ׁ": 555,
      "א": 556,
      "ב": 557,
      "ג": 558,
      "ד": 559,
      "ה": 560,
      "ו": 561,
      "ז": 562,
      "ח": 563,
      "ט": 564,
      "י": 565,
      "ך": 566,
      "כ": 567,
      "ל": 568,
      "ם": 569,
      "מ": 570,
      "ן": 571,
      "נ": 572,
      "ס": 573,
      "ע": 574,
      "ף": 575,
      "פ": 576,
      "צ": 577,
      "ק": 578,
      "ר": 579,
      "ש": 580,
      "ת": 581,
      "،": 582,
      "؟": 583,
      "ء": 584,
      "آ": 585,
      "أ": 586,
      "ؤ": 587,
      "إ": 588,
      "ئ": 589,
      "ا": 590,
      "ب": 591,
      "ة": 592,
      "ت": 593,
      "ث": 594,
      "ج": 595,
      "ح": 596,
      "خ": 597,
      "د": 598,
      "ذ": 599,
      "ر": 600,
      "ز": 601,
      "س": 602,
      "ش": 603,
      "ص": 604,
      "ض": 605,
      "ط": 606,
      "ظ": 607,
      "ع": 608,
      "غ": 609,
      "ـ": 610,
      "ف": 611,
      "ق": 612,
      "ك": 613,
      "ل": 614,
      "م": 615,
      "ن": 616,
      "ه": 617,
      "و": 618,
      "ى": 619,
      "ي": 620,
      "ً": 621,
      "ٌ": 622,
      "ٍ": 623,
      "َ": 624,
      "ُ": 625,
      "ِ": 626,
      "ّ": 627,
      "ْ": 628,
      "ٓ": 629,
      "ٔ": 630,
      "٠": 631,
      "١": 632,
      "٢": 633,
      "٣": 634,
      "٤": 635,
      "٥": 636,
      "٧": 637,
      "٨": 638,
      "٩": 639,
      "پ": 640,
      "چ": 641,
      "ڡ": 642,
      "ک": 643,
      "گ": 644,
      "ں": 645,
      "ھ": 646,
      "ہ": 647,
      "ۃ": 648,
      "ی": 649,
      "ے": 650,
      "۔": 651,
      "ܐ": 652,
      "ܒ": 653,
      "ܕ": 654,
      "ܘ": 655,
      "ܚ": 656,
      "ܝ": 657,
      "ܟ": 658,
      "ܠ": 659,
      "ܡ": 660,
      "ܢ": 661,
      "ܣ": 662,
      "ܦ": 663,
      "ܪ": 664,
      "ܬ": 665,
      "ܸ": 666,
      "ܹ": 667,
      "ं": 668,
      "अ": 669,
      "आ": 670,
      "इ": 671,
      "ई": 672,
      "उ": 673,
      "ए": 674,
      "क": 675,
      "ख": 676,
      "ग": 677,
      "च": 678,
      "ज": 679,
      "ट": 680,
      "ठ": 681,
      "ड": 682,
      "त": 683,
      "थ": 684,
      "द": 685,
      "ध": 686,
      "न": 687,
      "प": 688,
      "फ": 689,
      "ब": 690,
      "भ": 691,
      "म": 692,
      "य": 693,
      "र": 694,
      "ल": 695,
      "व": 696,
      "श": 697,
      "ष": 698,
      "स": 699,
      "ह": 700,
      "़": 701,
      "ा": 702,
      "ि": 703,
      "ी": 704,
      "ु": 705,
      "ू": 706,
      "ॅ": 707,
      "े": 708,
      "ै": 709,
      "ॉ": 710,
      "ो": 711,
      "ौ": 712,
      "्": 713,
      "ड़": 714,
      "।": 715,
      "॥": 716,
      "ঁ": 717,
      "অ": 718,
      "ও": 719,
      "ক": 720,
      "গ": 721,
      "চ": 722,
      "জ": 723,
      "ত": 724,
      "দ": 725,
      "ন": 726,
      "ব": 727,
      "ম": 728,
      "য": 729,
      "র": 730,
      "শ": 731,
      "স": 732,
      "া": 733,
      "ী": 734,
      "ু": 735,
      "ে": 736,
      "্": 737,
      "ৰ": 738,
      "੭": 739,
      "ం": 740,
      "క": 741,
      "జ": 742,
      "డ": 743,
      "త": 744,
      "థ": 745,
      "న": 746,
      "ప": 747,
      "భ": 748,
      "మ": 749,
      "ర": 750,
      "ష": 751,
      "హ": 752,
      "ా": 753,
      "ి": 754,
      "ీ": 755,
      "ు": 756,
      "్": 757,
      "ಠ": 758,
      "ක": 759,
      "ඩ": 760,
      "ප": 761,
      "ල": 762,
      "්": 763,
      "ු": 764,
      "ก": 765,
      "ข": 766,
      "ค": 767,
      "ฅ": 768,
      "ง": 769,
      "จ": 770,
      "ฉ": 771,
      "ช": 772,
      "ซ": 773,
      "ญ": 774,
      "ฏ": 775,
      "ฐ": 776,
      "ฒ": 777,
      "ณ": 778,
      "ด": 779,
      "ต": 780,
      "ถ": 781,
      "ท": 782,
      "ธ": 783,
      "น": 784,
      "บ": 785,
      "ป": 786,
      "ผ": 787,
      "ฝ": 788,
      "พ": 789,
      "ฟ": 790,
      "ภ": 791,
      "ม": 792,
      "ย": 793,
      "ร": 794,
      "ล": 795,
      "ว": 796,
      "ศ": 797,
      "ษ": 798,
      "ส": 799,
      "ห": 800,
      "อ": 801,
      "ะ": 802,
      "ั": 803,
      "า": 804,
      "ำ": 805,
      "ิ": 806,
      "ี": 807,
      "ึ": 808,
      "ื": 809,
      "ุ": 810,
      "ู": 811,
      "฿": 812,
      "เ": 813,
      "แ": 814,
      "โ": 815,
      "ใ": 816,
      "ไ": 817,
      "ๆ": 818,
      "็": 819,
      "่": 820,
      "้": 821,
      "์": 822,
      "๑": 823,
      "ა": 824,
      "ბ": 825,
      "გ": 826,
      "ე": 827,
      "ვ": 828,
      "ი": 829,
      "ლ": 830,
      "ნ": 831,
      "ო": 832,
      "რ": 833,
      "ყ": 834,
      "წ": 835,
      "ᄀ": 836,
      "ᄂ": 837,
      "ᄃ": 838,
      "ᄄ": 839,
      "ᄅ": 840,
      "ᄆ": 841,
      "ᄇ": 842,
      "ᄉ": 843,
      "ᄋ": 844,
      "ᄌ": 845,
      "ᄎ": 846,
      "ᄑ": 847,
      "ᄒ": 848,
      "ᅡ": 849,
      "ᅢ": 850,
      "ᅥ": 851,
      "ᅦ": 852,
      "ᅧ": 853,
      "ᅩ": 854,
      "ᅫ": 855,
      "ᅬ": 856,
      "ᅭ": 857,
      "ᅮ": 858,
      "ᅯ": 859,
      "ᅳ": 860,
      "ᅵ": 861,
      "ᆫ": 862,
      "ᆭ": 863,
      "ᆯ": 864,
      "ᆷ": 865,
      "ᆹ": 866,
      "ᆺ": 867,
      "ᆻ": 868,
      "ᇂ": 869,
      "Ꭰ": 870,
      "Ꭶ": 871,
      "Ꭿ": 872,
      "Ꮝ": 873,
      "Ꮧ": 874,
      "Ꮿ": 875,
      "ᴀ": 876,
      "ᴄ": 877,
      "ᴅ": 878,
      "ᴇ": 879,
      "ᴋ": 880,
      "ᴍ": 881,
      "ᴜ": 882,
      "ᴥ": 883,
      "ᴬ": 884,
      "ᴱ": 885,
      "ᴵ": 886,
      "ᴶ": 887,
      "ᴸ": 888,
      "ᴺ": 889,
      "ᵁ": 890,
      "ᵒ": 891,
      "ḅ": 892,
      "Ḍ": 893,
      "ḍ": 894,
      "ḏ": 895,
      "ḗ": 896,
      "ḡ": 897,
      "ḣ": 898,
      "Ḥ": 899,
      "ḥ": 900,
      "ḱ": 901,
      "ṃ": 902,
      "ṅ": 903,
      "ṇ": 904,
      "ṛ": 905,
      "Ṣ": 906,
      "ṣ": 907,
      "Ṭ": 908,
      "ṭ": 909,
      "ṯ": 910,
      "ṷ": 911,
      "ạ": 912,
      "ả": 913,
      "ấ": 914,
      "ầ": 915,
      "ẩ": 916,
      "ậ": 917,
      "ắ": 918,
      "ằ": 919,
      "ặ": 920,
      "ẹ": 921,
      "ẽ": 922,
      "ế": 923,
      "ề": 924,
      "ể": 925,
      "ễ": 926,
      "ệ": 927,
      "ị": 928,
      "ọ": 929,
      "ố": 930,
      "ồ": 931,
      "ớ": 932,
      "ở": 933,
      "ỡ": 934,
      "ợ": 935,
      "ụ": 936,
      "ủ": 937,
      "ứ": 938,
      "ừ": 939,
      "ử": 940,
      "ữ": 941,
      "ỳ": 942,
      "ἀ": 943,
      "ἂ": 944,
      "ἄ": 945,
      "Ἀ": 946,
      "ἐ": 947,
      "ἔ": 948,
      "ἕ": 949,
      "ἡ": 950,
      "ἰ": 951,
      "ἴ": 952,
      "Ἰ": 953,
      "Ἱ": 954,
      "ὁ": 955,
      "ὐ": 956,
      "ὑ": 957,
      "ὗ": 958,
      "ὤ": 959,
      "ὰ": 960,
      "ὸ": 961,
      "ᾱ": 962,
      "᾽": 963,
      "ῆ": 964,
      "ῖ": 965,
      "ῦ": 966,
      "Ῥ": 967,
      "ῳ": 968,
      "ῶ": 969,
      "ῷ": 970,
      "​": 971,
      "‌": 972,
      "‍": 973,
      "‎": 974,
      "‏": 975,
      "‐": 976,
      "‑": 977,
      "‒": 978,
      "–": 979,
      "—": 980,
      "―": 981,
      "‘": 982,
      "’": 983,
      "‚": 984,
      "‛": 985,
      "“": 986,
      "”": 987,
      "„": 988,
      "‟": 989,
      "†": 990,
      "‡": 991,
      "•": 992,
      "…": 993,
      "‪": 994,
      "‫": 995,
      "‬": 996,
      "‭": 997,
      "‰": 998,
      "′": 999,
      "″": 1000,
      "‹": 1001,
      "›": 1002,
      "※": 1003,
      "‼": 1004,
      "‿": 1005,
      "⁄": 1006,
      "⁠": 1007,
      "⁰": 1008,
      "⁴": 1009,
      "⁵": 1010,
      "⁶": 1011,
      "⁺": 1012,
      "⁻": 1013,
      "⁾": 1014,
      "₁": 1015,
      "₂": 1016,
      "₤": 1017,
      "₩": 1018,
      "€": 1019,
      "₱": 1020,
      "₴": 1021,
      "₹": 1022,
      "⃣": 1023,
      "℃": 1024,
      "ℏ": 1025,
      "ℓ": 1026,
      "ℕ": 1027,
      "№": 1028,
      "ℝ": 1029,
      "℠": 1030,
      "™": 1031,
      "Å": 1032,
      "ℳ": 1033,
      "⅓": 1034,
      "⅔": 1035,
      "⅜": 1036,
      "←": 1037,
      "↑": 1038,
      "→": 1039,
      "↓": 1040,
      "↪": 1041,
      "↬": 1042,
      "⇑": 1043,
      "⇒": 1044,
      "⇓": 1045,
      "⇝": 1046,
      "⇢": 1047,
      "⇦": 1048,
      "⇧": 1049,
      "∀": 1050,
      "∂": 1051,
      "∅": 1052,
      "∆": 1053,
      "∈": 1054,
      "∏": 1055,
      "∑": 1056,
      "−": 1057,
      "∓": 1058,
      "∖": 1059,
      "∗": 1060,
      "∙": 1061,
      "√": 1062,
      "∝": 1063,
      "∞": 1064,
      "∣": 1065,
      "∧": 1066,
      "∩": 1067,
      "∪": 1068,
      "∮": 1069,
      "∯": 1070,
      "∼": 1071,
      "≈": 1072,
      "≒": 1073,
      "≠": 1074,
      "≡": 1075,
      "≤": 1076,
      "≥": 1077,
      "≦": 1078,
      "⊂": 1079,
      "⊆": 1080,
      "⊙": 1081,
      "⊸": 1082,
      "⋂": 1083,
      "⋃": 1084,
      "⋅": 1085,
      "⋋": 1086,
      "⋌": 1087,
      "⋯": 1088,
      "⌃": 1089,
      "⌒": 1090,
      "⌘": 1091,
      "⌦": 1092,
      "⌫": 1093,
      "⎯": 1094,
      "⏺": 1095,
      "①": 1096,
      "②": 1097,
      "③": 1098,
      "④": 1099,
      "⑤": 1100,
      "⑥": 1101,
      "⑦": 1102,
      "⑧": 1103,
      "⑨": 1104,
      "⑩": 1105,
      "⑪": 1106,
      "Ⓒ": 1107,
      "Ⓥ": 1108,
      "ⓒ": 1109,
      "─": 1110,
      "│": 1111,
      "└": 1112,
      "├": 1113,
      "╭": 1114,
      "╹": 1115,
      "▇": 1116,
      "█": 1117,
      "▌": 1118,
      "▐": 1119,
      "■": 1120,
      "□": 1121,
      "▤": 1122,
      "▪": 1123,
      "▬": 1124,
      "▲": 1125,
      "△": 1126,
      "▶": 1127,
      "▸": 1128,
      "▹": 1129,
      "►": 1130,
      "▼": 1131,
      "▽": 1132,
      "◀": 1133,
      "◆": 1134,
      "◇": 1135,
      "◊": 1136,
      "○": 1137,
      "◌": 1138,
      "◍": 1139,
      "●": 1140,
      "◔": 1141,
      "◕": 1142,
      "◡": 1143,
      "◦": 1144,
      "☀": 1145,
      "☃": 1146,
      "☄": 1147,
      "★": 1148,
      "☆": 1149,
      "☉": 1150,
      "☔": 1151,
      "☕": 1152,
      "☘": 1153,
      "☝": 1154,
      "☞": 1155,
      "☠": 1156,
      "☢": 1157,
      "☦": 1158,
      "☩": 1159,
      "☪": 1160,
      "☯": 1161,
      "☰": 1162,
      "☱": 1163,
      "☵": 1164,
      "☷": 1165,
      "☹": 1166,
      "☺": 1167,
      "☻": 1168,
      "☿": 1169,
      "♀": 1170,
      "♂": 1171,
      "♛": 1172,
      "♠": 1173,
      "♡": 1174,
      "♣": 1175,
      "♥": 1176,
      "♦": 1177,
      "♪": 1178,
      "♭": 1179,
      "⚆": 1180,
      "⚊": 1181,
      "⚋": 1182,
      "⚑": 1183,
      "⚓": 1184,
      "⚠": 1185,
      "⚡": 1186,
      "⚢": 1187,
      "⚪": 1188,
      "⚫": 1189,
      "⚭": 1190,
      "⚽": 1191,
      "⚾": 1192,
      "✅": 1193,
      "✈": 1194,
      "✉": 1195,
      "✊": 1196,
      "✌": 1197,
      "✒": 1198,
      "✓": 1199,
      "✔": 1200,
      "✖": 1201,
      "✘": 1202,
      "✡": 1203,
      "✧": 1204,
      "✨": 1205,
      "✴": 1206,
      "✿": 1207,
      "❄": 1208,
      "❌": 1209,
      "❑": 1210,
      "❓": 1211,
      "❖": 1212,
      "❗": 1213,
      "❚": 1214,
      "❤": 1215,
      "❮": 1216,
      "❯": 1217,
      "➔": 1218,
      "➜": 1219,
      "➡": 1220,
      "➤": 1221,
      "⟨": 1222,
      "⟩": 1223,
      "⟶": 1224,
      "⠀": 1225,
      "⤵": 1226,
      "⦁": 1227,
      "⩱": 1228,
      "⩲": 1229,
      "⭐": 1230,
      "、": 1231,
      "。": 1232,
      "々": 1233,
      "〈": 1234,
      "〉": 1235,
      "《": 1236,
      "》": 1237,
      "「": 1238,
      "」": 1239,
      "』": 1240,
      "【": 1241,
      "】": 1242,
      "あ": 1243,
      "い": 1244,
      "う": 1245,
      "え": 1246,
      "お": 1247,
      "か": 1248,
      "が": 1249,
      "き": 1250,
      "ぎ": 1251,
      "く": 1252,
      "ぐ": 1253,
      "け": 1254,
      "げ": 1255,
      "こ": 1256,
      "ご": 1257,
      "さ": 1258,
      "ざ": 1259,
      "し": 1260,
      "じ": 1261,
      "す": 1262,
      "ず": 1263,
      "せ": 1264,
      "ぜ": 1265,
      "そ": 1266,
      "ぞ": 1267,
      "た": 1268,
      "だ": 1269,
      "ち": 1270,
      "っ": 1271,
      "つ": 1272,
      "づ": 1273,
      "て": 1274,
      "で": 1275,
      "と": 1276,
      "ど": 1277,
      "な": 1278,
      "に": 1279,
      "ぬ": 1280,
      "ね": 1281,
      "の": 1282,
      "は": 1283,
      "ば": 1284,
      "ひ": 1285,
      "び": 1286,
      "ぴ": 1287,
      "ふ": 1288,
      "へ": 1289,
      "べ": 1290,
      "ほ": 1291,
      "ぽ": 1292,
      "ま": 1293,
      "み": 1294,
      "む": 1295,
      "め": 1296,
      "も": 1297,
      "ゃ": 1298,
      "や": 1299,
      "ゅ": 1300,
      "ょ": 1301,
      "よ": 1302,
      "ら": 1303,
      "り": 1304,
      "る": 1305,
      "れ": 1306,
      "ろ": 1307,
      "わ": 1308,
      "を": 1309,
      "ん": 1310,
      "ゝ": 1311,
      "ゞ": 1312,
      "ァ": 1313,
      "ア": 1314,
      "ィ": 1315,
      "イ": 1316,
      "ゥ": 1317,
      "ウ": 1318,
      "ェ": 1319,
      "エ": 1320,
      "ォ": 1321,
      "オ": 1322,
      "カ": 1323,
      "ガ": 1324,
      "キ": 1325,
      "ギ": 1326,
      "ク": 1327,
      "グ": 1328,
      "ケ": 1329,
      "コ": 1330,
      "ゴ": 1331,
      "サ": 1332,
      "ザ": 1333,
      "シ": 1334,
      "ジ": 1335,
      "ス": 1336,
      "ズ": 1337,
      "セ": 1338,
      "ゼ": 1339,
      "ソ": 1340,
      "タ": 1341,
      "ダ": 1342,
      "チ": 1343,
      "ッ": 1344,
      "ツ": 1345,
      "テ": 1346,
      "デ": 1347,
      "ト": 1348,
      "ド": 1349,
      "ナ": 1350,
      "ニ": 1351,
      "ヌ": 1352,
      "ネ": 1353,
      "ノ": 1354,
      "ハ": 1355,
      "バ": 1356,
      "パ": 1357,
      "ヒ": 1358,
      "ビ": 1359,
      "ピ": 1360,
      "フ": 1361,
      "ブ": 1362,
      "プ": 1363,
      "ヘ": 1364,
      "ベ": 1365,
      "ペ": 1366,
      "ホ": 1367,
      "ボ": 1368,
      "ポ": 1369,
      "マ": 1370,
      "ミ": 1371,
      "ム": 1372,
      "メ": 1373,
      "モ": 1374,
      "ャ": 1375,
      "ヤ": 1376,
      "ュ": 1377,
      "ユ": 1378,
      "ョ": 1379,
      "ラ": 1380,
      "リ": 1381,
      "ル": 1382,
      "レ": 1383,
      "ロ": 1384,
      "ワ": 1385,
      "ヲ": 1386,
      "ン": 1387,
      "ヴ": 1388,
      "・": 1389,
      "ー": 1390,
      "ヽ": 1391,
      "ㄱ": 1392,
      "ㄲ": 1393,
      "ㄷ": 1394,
      "ㅂ": 1395,
      "ㅇ": 1396,
      "ㅋ": 1397,
      "ㅜ": 1398,
      "ㅠ": 1399,
      "ㅡ": 1400,
      "ㅣ": 1401,
      "ㆍ": 1402,
      "㎞": 1403,
      "䷕": 1404,
      "䷟": 1405,
      "一": 1406,
      "丁": 1407,
      "七": 1408,
      "万": 1409,
      "丈": 1410,
      "三": 1411,
      "上": 1412,
      "下": 1413,
      "不": 1414,
      "与": 1415,
      "丑": 1416,
      "且": 1417,
      "世": 1418,
      "丘": 1419,
      "丙": 1420,
      "业": 1421,
      "东": 1422,
      "丝": 1423,
      "丞": 1424,
      "両": 1425,
      "並": 1426,
      "丨": 1427,
      "个": 1428,
      "中": 1429,
      "丰": 1430,
      "临": 1431,
      "丸": 1432,
      "丹": 1433,
      "为": 1434,
      "主": 1435,
      "丽": 1436,
      "举": 1437,
      "乃": 1438,
      "久": 1439,
      "么": 1440,
      "义": 1441,
      "之": 1442,
      "乎": 1443,
      "乐": 1444,
      "乗": 1445,
      "乘": 1446,
      "九": 1447,
      "乞": 1448,
      "也": 1449,
      "乡": 1450,
      "乱": 1451,
      "亀": 1452,
      "亂": 1453,
      "了": 1454,
      "予": 1455,
      "争": 1456,
      "事": 1457,
      "二": 1458,
      "于": 1459,
      "云": 1460,
      "互": 1461,
      "五": 1462,
      "井": 1463,
      "亚": 1464,
      "些": 1465,
      "亞": 1466,
      "亡": 1467,
      "亢": 1468,
      "交": 1469,
      "亦": 1470,
      "产": 1471,
      "享": 1472,
      "京": 1473,
      "亮": 1474,
      "亲": 1475,
      "人": 1476,
      "亿": 1477,
      "什": 1478,
      "仁": 1479,
      "仅": 1480,
      "仇": 1481,
      "今": 1482,
      "介": 1483,
      "仍": 1484,
      "从": 1485,
      "仕": 1486,
      "他": 1487,
      "付": 1488,
      "代": 1489,
      "令": 1490,
      "以": 1491,
      "们": 1492,
      "仮": 1493,
      "仰": 1494,
      "仲": 1495,
      "件": 1496,
      "价": 1497,
      "任": 1498,
      "份": 1499,
      "企": 1500,
      "伍": 1501,
      "伏": 1502,
      "伐": 1503,
      "休": 1504,
      "众": 1505,
      "伙": 1506,
      "会": 1507,
      "伝": 1508,
      "伟": 1509,
      "传": 1510,
      "伤": 1511,
      "伯": 1512,
      "伴": 1513,
      "似": 1514,
      "佃": 1515,
      "但": 1516,
      "位": 1517,
      "低": 1518,
      "住": 1519,
      "佐": 1520,
      "佑": 1521,
      "体": 1522,
      "何": 1523,
      "余": 1524,
      "佛": 1525,
      "作": 1526,
      "你": 1527,
      "佩": 1528,
      "佬": 1529,
      "佾": 1530,
      "使": 1531,
      "侃": 1532,
      "來": 1533,
      "例": 1534,
      "侌": 1535,
      "侍": 1536,
      "侔": 1537,
      "侗": 1538,
      "供": 1539,
      "依": 1540,
      "価": 1541,
      "侫": 1542,
      "侯": 1543,
      "侵": 1544,
      "便": 1545,
      "係": 1546,
      "促": 1547,
      "俄": 1548,
      "俗": 1549,
      "保": 1550,
      "俟": 1551,
      "俠": 1552,
      "信": 1553,
      "修": 1554,
      "俺": 1555,
      "倉": 1556,
      "個": 1557,
      "倍": 1558,
      "們": 1559,
      "倒": 1560,
      "候": 1561,
      "借": 1562,
      "値": 1563,
      "倦": 1564,
      "倩": 1565,
      "债": 1566,
      "值": 1567,
      "偃": 1568,
      "假": 1569,
      "偏": 1570,
      "做": 1571,
      "偰": 1572,
      "側": 1573,
      "偷": 1574,
      "偸": 1575,
      "傅": 1576,
      "備": 1577,
      "傳": 1578,
      "傷": 1579,
      "傾": 1580,
      "働": 1581,
      "像": 1582,
      "僕": 1583,
      "儀": 1584,
      "億": 1585,
      "儉": 1586,
      "儒": 1587,
      "儺": 1588,
      "儿": 1589,
      "允": 1590,
      "元": 1591,
      "兄": 1592,
      "充": 1593,
      "先": 1594,
      "光": 1595,
      "克": 1596,
      "免": 1597,
      "兒": 1598,
      "兔": 1599,
      "党": 1600,
      "兢": 1601,
      "入": 1602,
      "內": 1603,
      "全": 1604,
      "兩": 1605,
      "兪": 1606,
      "八": 1607,
      "公": 1608,
      "六": 1609,
      "兮": 1610,
      "共": 1611,
      "关": 1612,
      "兴": 1613,
      "兵": 1614,
      "其": 1615,
      "具": 1616,
      "典": 1617,
      "养": 1618,
      "兼": 1619,
      "内": 1620,
      "冉": 1621,
      "再": 1622,
      "冕": 1623,
      "军": 1624,
      "农": 1625,
      "冠": 1626,
      "冰": 1627,
      "冲": 1628,
      "决": 1629,
      "况": 1630,
      "冶": 1631,
      "冷": 1632,
      "准": 1633,
      "凌": 1634,
      "减": 1635,
      "几": 1636,
      "凡": 1637,
      "処": 1638,
      "凱": 1639,
      "凶": 1640,
      "出": 1641,
      "击": 1642,
      "分": 1643,
      "切": 1644,
      "刊": 1645,
      "刑": 1646,
      "划": 1647,
      "列": 1648,
      "则": 1649,
      "创": 1650,
      "初": 1651,
      "删": 1652,
      "判": 1653,
      "別": 1654,
      "利": 1655,
      "别": 1656,
      "到": 1657,
      "制": 1658,
      "刷": 1659,
      "刺": 1660,
      "刻": 1661,
      "則": 1662,
      "削": 1663,
      "前": 1664,
      "剏": 1665,
      "剛": 1666,
      "剣": 1667,
      "剥": 1668,
      "剧": 1669,
      "割": 1670,
      "創": 1671,
      "劇": 1672,
      "劉": 1673,
      "劍": 1674,
      "力": 1675,
      "办": 1676,
      "功": 1677,
      "加": 1678,
      "务": 1679,
      "劣": 1680,
      "动": 1681,
      "助": 1682,
      "努": 1683,
      "劳": 1684,
      "効": 1685,
      "势": 1686,
      "勃": 1687,
      "勇": 1688,
      "勉": 1689,
      "動": 1690,
      "務": 1691,
      "勝": 1692,
      "勞": 1693,
      "勤": 1694,
      "勿": 1695,
      "包": 1696,
      "化": 1697,
      "北": 1698,
      "匡": 1699,
      "匹": 1700,
      "区": 1701,
      "匿": 1702,
      "十": 1703,
      "千": 1704,
      "升": 1705,
      "半": 1706,
      "卍": 1707,
      "华": 1708,
      "卑": 1709,
      "卓": 1710,
      "協": 1711,
      "单": 1712,
      "卖": 1713,
      "南": 1714,
      "単": 1715,
      "博": 1716,
      "卞": 1717,
      "卡": 1718,
      "卦": 1719,
      "卯": 1720,
      "印": 1721,
      "危": 1722,
      "即": 1723,
      "却": 1724,
      "卷": 1725,
      "卿": 1726,
      "历": 1727,
      "压": 1728,
      "厚": 1729,
      "原": 1730,
      "厭": 1731,
      "厲": 1732,
      "厳": 1733,
      "去": 1734,
      "参": 1735,
      "參": 1736,
      "又": 1737,
      "及": 1738,
      "友": 1739,
      "反": 1740,
      "发": 1741,
      "叔": 1742,
      "取": 1743,
      "受": 1744,
      "变": 1745,
      "口": 1746,
      "古": 1747,
      "另": 1748,
      "叩": 1749,
      "只": 1750,
      "召": 1751,
      "可": 1752,
      "台": 1753,
      "史": 1754,
      "右": 1755,
      "叶": 1756,
      "号": 1757,
      "司": 1758,
      "吃": 1759,
      "各": 1760,
      "合": 1761,
      "吉": 1762,
      "同": 1763,
      "名": 1764,
      "后": 1765,
      "向": 1766,
      "君": 1767,
      "吝": 1768,
      "否": 1769,
      "吧": 1770,
      "含": 1771,
      "听": 1772,
      "启": 1773,
      "吳": 1774,
      "吾": 1775,
      "吿": 1776,
      "呀": 1777,
      "呂": 1778,
      "呉": 1779,
      "告": 1780,
      "员": 1781,
      "周": 1782,
      "味": 1783,
      "呼": 1784,
      "命": 1785,
      "和": 1786,
      "咎": 1787,
      "哀": 1788,
      "品": 1789,
      "哂": 1790,
      "哈": 1791,
      "哉": 1792,
      "員": 1793,
      "哥": 1794,
      "哪": 1795,
      "哭": 1796,
      "唐": 1797,
      "唔": 1798,
      "唯": 1799,
      "唱": 1800,
      "商": 1801,
      "問": 1802,
      "啓": 1803,
      "啟": 1804,
      "啼": 1805,
      "善": 1806,
      "喜": 1807,
      "喟": 1808,
      "喧": 1809,
      "喩": 1810,
      "喪": 1811,
      "喭": 1812,
      "單": 1813,
      "喵": 1814,
      "嗅": 1815,
      "嗎": 1816,
      "嗚": 1817,
      "嗡": 1818,
      "嘗": 1819,
      "器": 1820,
      "噫": 1821,
      "嚣": 1822,
      "嚴": 1823,
      "囘": 1824,
      "四": 1825,
      "回": 1826,
      "因": 1827,
      "团": 1828,
      "団": 1829,
      "困": 1830,
      "囲": 1831,
      "図": 1832,
      "围": 1833,
      "固": 1834,
      "国": 1835,
      "國": 1836,
      "園": 1837,
      "圓": 1838,
      "圖": 1839,
      "土": 1840,
      "在": 1841,
      "圭": 1842,
      "地": 1843,
      "场": 1844,
      "址": 1845,
      "坂": 1846,
      "均": 1847,
      "坏": 1848,
      "坐": 1849,
      "坡": 1850,
      "坦": 1851,
      "坪": 1852,
      "坫": 1853,
      "型": 1854,
      "城": 1855,
      "域": 1856,
      "執": 1857,
      "培": 1858,
      "基": 1859,
      "堂": 1860,
      "堅": 1861,
      "堪": 1862,
      "堯": 1863,
      "報": 1864,
      "場": 1865,
      "塑": 1866,
      "塔": 1867,
      "塚": 1868,
      "塞": 1869,
      "境": 1870,
      "増": 1871,
      "壁": 1872,
      "壊": 1873,
      "士": 1874,
      "壬": 1875,
      "壮": 1876,
      "壯": 1877,
      "声": 1878,
      "壳": 1879,
      "壽": 1880,
      "处": 1881,
      "変": 1882,
      "复": 1883,
      "夏": 1884,
      "夕": 1885,
      "外": 1886,
      "多": 1887,
      "夜": 1888,
      "够": 1889,
      "夠": 1890,
      "夢": 1891,
      "大": 1892,
      "天": 1893,
      "太": 1894,
      "夫": 1895,
      "夭": 1896,
      "央": 1897,
      "失": 1898,
      "头": 1899,
      "夷": 1900,
      "夺": 1901,
      "奇": 1902,
      "奋": 1903,
      "奎": 1904,
      "奏": 1905,
      "奔": 1906,
      "套": 1907,
      "奚": 1908,
      "奢": 1909,
      "奥": 1910,
      "奧": 1911,
      "奪": 1912,
      "女": 1913,
      "奶": 1914,
      "奸": 1915,
      "好": 1916,
      "如": 1917,
      "妻": 1918,
      "姉": 1919,
      "始": 1920,
      "姓": 1921,
      "委": 1922,
      "姜": 1923,
      "姫": 1924,
      "威": 1925,
      "娄": 1926,
      "娇": 1927,
      "娜": 1928,
      "娟": 1929,
      "婚": 1930,
      "婦": 1931,
      "婴": 1932,
      "媒": 1933,
      "媚": 1934,
      "媽": 1935,
      "嫩": 1936,
      "嬉": 1937,
      "嬋": 1938,
      "子": 1939,
      "孔": 1940,
      "字": 1941,
      "存": 1942,
      "孝": 1943,
      "孟": 1944,
      "季": 1945,
      "孤": 1946,
      "学": 1947,
      "孩": 1948,
      "孫": 1949,
      "孰": 1950,
      "學": 1951,
      "它": 1952,
      "宅": 1953,
      "宇": 1954,
      "守": 1955,
      "安": 1956,
      "宋": 1957,
      "完": 1958,
      "宗": 1959,
      "官": 1960,
      "宙": 1961,
      "定": 1962,
      "宛": 1963,
      "宜": 1964,
      "实": 1965,
      "実": 1966,
      "客": 1967,
      "宣": 1968,
      "室": 1969,
      "宮": 1970,
      "宰": 1971,
      "害": 1972,
      "家": 1973,
      "容": 1974,
      "宿": 1975,
      "寄": 1976,
      "寅": 1977,
      "密": 1978,
      "富": 1979,
      "寒": 1980,
      "寛": 1981,
      "寝": 1982,
      "察": 1983,
      "寡": 1984,
      "寢": 1985,
      "實": 1986,
      "寧": 1987,
      "寵": 1988,
      "对": 1989,
      "寺": 1990,
      "导": 1991,
      "対": 1992,
      "封": 1993,
      "専": 1994,
      "射": 1995,
      "将": 1996,
      "將": 1997,
      "對": 1998,
      "導": 1999,
      "小": 2000,
      "少": 2001,
      "尔": 2002,
      "尚": 2003,
      "尤": 2004,
      "就": 2005,
      "尸": 2006,
      "尹": 2007,
      "尺": 2008,
      "尼": 2009,
      "尽": 2010,
      "尾": 2011,
      "局": 2012,
      "层": 2013,
      "居": 2014,
      "屆": 2015,
      "届": 2016,
      "屋": 2017,
      "展": 2018,
      "屛": 2019,
      "屢": 2020,
      "履": 2021,
      "屬": 2022,
      "山": 2023,
      "岁": 2024,
      "岛": 2025,
      "岡": 2026,
      "岩": 2027,
      "峡": 2028,
      "島": 2029,
      "崇": 2030,
      "崎": 2031,
      "崔": 2032,
      "崛": 2033,
      "嶋": 2034,
      "巍": 2035,
      "川": 2036,
      "州": 2037,
      "巡": 2038,
      "工": 2039,
      "左": 2040,
      "巧": 2041,
      "巨": 2042,
      "巩": 2043,
      "巫": 2044,
      "己": 2045,
      "已": 2046,
      "巳": 2047,
      "巴": 2048,
      "巷": 2049,
      "巻": 2050,
      "巽": 2051,
      "币": 2052,
      "市": 2053,
      "布": 2054,
      "师": 2055,
      "希": 2056,
      "帝": 2057,
      "帥": 2058,
      "带": 2059,
      "師": 2060,
      "席": 2061,
      "帮": 2062,
      "帳": 2063,
      "帶": 2064,
      "帷": 2065,
      "常": 2066,
      "幫": 2067,
      "干": 2068,
      "平": 2069,
      "年": 2070,
      "并": 2071,
      "幸": 2072,
      "幹": 2073,
      "幻": 2074,
      "广": 2075,
      "庆": 2076,
      "床": 2077,
      "序": 2078,
      "应": 2079,
      "店": 2080,
      "庚": 2081,
      "府": 2082,
      "废": 2083,
      "度": 2084,
      "庭": 2085,
      "庶": 2086,
      "康": 2087,
      "庸": 2088,
      "廉": 2089,
      "廋": 2090,
      "廐": 2091,
      "廟": 2092,
      "廢": 2093,
      "延": 2094,
      "廷": 2095,
      "建": 2096,
      "廿": 2097,
      "开": 2098,
      "异": 2099,
      "弈": 2100,
      "弋": 2101,
      "式": 2102,
      "弒": 2103,
      "弓": 2104,
      "弔": 2105,
      "引": 2106,
      "弗": 2107,
      "弘": 2108,
      "弟": 2109,
      "张": 2110,
      "弱": 2111,
      "張": 2112,
      "強": 2113,
      "强": 2114,
      "弾": 2115,
      "彊": 2116,
      "彌": 2117,
      "归": 2118,
      "当": 2119,
      "形": 2120,
      "彦": 2121,
      "彩": 2122,
      "彫": 2123,
      "彬": 2124,
      "彭": 2125,
      "影": 2126,
      "役": 2127,
      "彼": 2128,
      "往": 2129,
      "待": 2130,
      "很": 2131,
      "律": 2132,
      "後": 2133,
      "徐": 2134,
      "徑": 2135,
      "徒": 2136,
      "得": 2137,
      "從": 2138,
      "御": 2139,
      "復": 2140,
      "循": 2141,
      "微": 2142,
      "德": 2143,
      "徹": 2144,
      "心": 2145,
      "必": 2146,
      "忍": 2147,
      "志": 2148,
      "忘": 2149,
      "応": 2150,
      "忠": 2151,
      "快": 2152,
      "忮": 2153,
      "念": 2154,
      "忽": 2155,
      "态": 2156,
      "怒": 2157,
      "怖": 2158,
      "怜": 2159,
      "思": 2160,
      "怡": 2161,
      "急": 2162,
      "性": 2163,
      "怨": 2164,
      "怪": 2165,
      "怯": 2166,
      "总": 2167,
      "恂": 2168,
      "恆": 2169,
      "恐": 2170,
      "恒": 2171,
      "恕": 2172,
      "恤": 2173,
      "恥": 2174,
      "恨": 2175,
      "恭": 2176,
      "息": 2177,
      "恰": 2178,
      "恶": 2179,
      "悔": 2180,
      "悟": 2181,
      "患": 2182,
      "悯": 2183,
      "悱": 2184,
      "悲": 2185,
      "悾": 2186,
      "情": 2187,
      "惊": 2188,
      "惑": 2189,
      "惜": 2190,
      "惟": 2191,
      "惠": 2192,
      "惡": 2193,
      "惩": 2194,
      "惰": 2195,
      "想": 2196,
      "惹": 2197,
      "愈": 2198,
      "愉": 2199,
      "意": 2200,
      "愚": 2201,
      "愛": 2202,
      "感": 2203,
      "愬": 2204,
      "愼": 2205,
      "愿": 2206,
      "慈": 2207,
      "態": 2208,
      "慍": 2209,
      "慟": 2210,
      "慢": 2211,
      "慣": 2212,
      "慧": 2213,
      "慮": 2214,
      "慾": 2215,
      "憂": 2216,
      "憎": 2217,
      "憚": 2218,
      "憤": 2219,
      "憾": 2220,
      "懦": 2221,
      "懷": 2222,
      "懼": 2223,
      "懿": 2224,
      "戊": 2225,
      "戏": 2226,
      "成": 2227,
      "我": 2228,
      "或": 2229,
      "战": 2230,
      "戚": 2231,
      "戟": 2232,
      "戦": 2233,
      "戮": 2234,
      "戯": 2235,
      "戰": 2236,
      "戶": 2237,
      "户": 2238,
      "戻": 2239,
      "房": 2240,
      "所": 2241,
      "手": 2242,
      "才": 2243,
      "打": 2244,
      "扰": 2245,
      "扱": 2246,
      "批": 2247,
      "承": 2248,
      "技": 2249,
      "把": 2250,
      "抑": 2251,
      "抓": 2252,
      "投": 2253,
      "抗": 2254,
      "折": 2255,
      "抜": 2256,
      "択": 2257,
      "护": 2258,
      "报": 2259,
      "抱": 2260,
      "抵": 2261,
      "押": 2262,
      "抽": 2263,
      "拂": 2264,
      "担": 2265,
      "拉": 2266,
      "拍": 2267,
      "拐": 2268,
      "拒": 2269,
      "拖": 2270,
      "招": 2271,
      "拜": 2272,
      "拡": 2273,
      "拥": 2274,
      "括": 2275,
      "拳": 2276,
      "拼": 2277,
      "拽": 2278,
      "持": 2279,
      "指": 2280,
      "挑": 2281,
      "挙": 2282,
      "振": 2283,
      "挿": 2284,
      "捜": 2285,
      "据": 2286,
      "捲": 2287,
      "授": 2288,
      "掌": 2289,
      "排": 2290,
      "掠": 2291,
      "探": 2292,
      "接": 2293,
      "控": 2294,
      "推": 2295,
      "措": 2296,
      "掲": 2297,
      "描": 2298,
      "提": 2299,
      "揖": 2300,
      "揚": 2301,
      "握": 2302,
      "揮": 2303,
      "援": 2304,
      "揺": 2305,
      "損": 2306,
      "搏": 2307,
      "搜": 2308,
      "摘": 2309,
      "摩": 2310,
      "摯": 2311,
      "撃": 2312,
      "撤": 2313,
      "播": 2314,
      "撰": 2315,
      "擁": 2316,
      "擇": 2317,
      "操": 2318,
      "據": 2319,
      "擧": 2320,
      "擯": 2321,
      "攜": 2322,
      "攝": 2323,
      "支": 2324,
      "收": 2325,
      "改": 2326,
      "攻": 2327,
      "放": 2328,
      "政": 2329,
      "故": 2330,
      "效": 2331,
      "敎": 2332,
      "敏": 2333,
      "救": 2334,
      "敗": 2335,
      "教": 2336,
      "敝": 2337,
      "敢": 2338,
      "敦": 2339,
      "敬": 2340,
      "数": 2341,
      "敲": 2342,
      "整": 2343,
      "敷": 2344,
      "數": 2345,
      "斂": 2346,
      "文": 2347,
      "斎": 2348,
      "斐": 2349,
      "斗": 2350,
      "料": 2351,
      "斤": 2352,
      "斥": 2353,
      "断": 2354,
      "斯": 2355,
      "新": 2356,
      "方": 2357,
      "於": 2358,
      "施": 2359,
      "旁": 2360,
      "旅": 2361,
      "族": 2362,
      "旗": 2363,
      "无": 2364,
      "旣": 2365,
      "日": 2366,
      "旦": 2367,
      "旧": 2368,
      "早": 2369,
      "旬": 2370,
      "旭": 2371,
      "时": 2372,
      "昆": 2373,
      "昌": 2374,
      "明": 2375,
      "易": 2376,
      "昔": 2377,
      "昜": 2378,
      "星": 2379,
      "映": 2380,
      "春": 2381,
      "昭": 2382,
      "是": 2383,
      "昴": 2384,
      "显": 2385,
      "時": 2386,
      "晏": 2387,
      "晝": 2388,
      "晤": 2389,
      "普": 2390,
      "景": 2391,
      "智": 2392,
      "暂": 2393,
      "暑": 2394,
      "暖": 2395,
      "暘": 2396,
      "暴": 2397,
      "曆": 2398,
      "曜": 2399,
      "曰": 2400,
      "曲": 2401,
      "更": 2402,
      "書": 2403,
      "曺": 2404,
      "曾": 2405,
      "替": 2406,
      "最": 2407,
      "會": 2408,
      "月": 2409,
      "有": 2410,
      "朋": 2411,
      "服": 2412,
      "朔": 2413,
      "望": 2414,
      "朝": 2415,
      "期": 2416,
      "木": 2417,
      "未": 2418,
      "末": 2419,
      "本": 2420,
      "术": 2421,
      "朱": 2422,
      "朴": 2423,
      "机": 2424,
      "朽": 2425,
      "杀": 2426,
      "杂": 2427,
      "权": 2428,
      "李": 2429,
      "材": 2430,
      "村": 2431,
      "杖": 2432,
      "束": 2433,
      "条": 2434,
      "来": 2435,
      "杨": 2436,
      "杰": 2437,
      "東": 2438,
      "松": 2439,
      "板": 2440,
      "极": 2441,
      "构": 2442,
      "枉": 2443,
      "析": 2444,
      "枕": 2445,
      "林": 2446,
      "果": 2447,
      "柏": 2448,
      "某": 2449,
      "染": 2450,
      "查": 2451,
      "柱": 2452,
      "柳": 2453,
      "柴": 2454,
      "査": 2455,
      "标": 2456,
      "栗": 2457,
      "校": 2458,
      "株": 2459,
      "样": 2460,
      "核": 2461,
      "根": 2462,
      "格": 2463,
      "案": 2464,
      "桑": 2465,
      "桓": 2466,
      "桴": 2467,
      "梁": 2468,
      "梅": 2469,
      "梦": 2470,
      "棄": 2471,
      "棍": 2472,
      "棒": 2473,
      "棖": 2474,
      "棘": 2475,
      "棣": 2476,
      "森": 2477,
      "棺": 2478,
      "椁": 2479,
      "植": 2480,
      "業": 2481,
      "極": 2482,
      "楽": 2483,
      "構": 2484,
      "様": 2485,
      "樂": 2486,
      "樊": 2487,
      "模": 2488,
      "権": 2489,
      "横": 2490,
      "樹": 2491,
      "橋": 2492,
      "機": 2493,
      "橫": 2494,
      "檐": 2495,
      "權": 2496,
      "欠": 2497,
      "次": 2498,
      "欢": 2499,
      "欧": 2500,
      "欲": 2501,
      "欺": 2502,
      "歌": 2503,
      "歎": 2504,
      "歓": 2505,
      "歡": 2506,
      "止": 2507,
      "正": 2508,
      "此": 2509,
      "步": 2510,
      "武": 2511,
      "歧": 2512,
      "歩": 2513,
      "歲": 2514,
      "歳": 2515,
      "歴": 2516,
      "歸": 2517,
      "死": 2518,
      "殆": 2519,
      "残": 2520,
      "殖": 2521,
      "殯": 2522,
      "段": 2523,
      "殷": 2524,
      "殺": 2525,
      "殼": 2526,
      "殿": 2527,
      "毅": 2528,
      "毋": 2529,
      "母": 2530,
      "每": 2531,
      "毒": 2532,
      "比": 2533,
      "毕": 2534,
      "毛": 2535,
      "氏": 2536,
      "氐": 2537,
      "民": 2538,
      "氓": 2539,
      "气": 2540,
      "気": 2541,
      "氣": 2542,
      "水": 2543,
      "永": 2544,
      "求": 2545,
      "汇": 2546,
      "汉": 2547,
      "汗": 2548,
      "汝": 2549,
      "江": 2550,
      "池": 2551,
      "汶": 2552,
      "沂": 2553,
      "沈": 2554,
      "沉": 2555,
      "沒": 2556,
      "沙": 2557,
      "沛": 2558,
      "没": 2559,
      "沢": 2560,
      "沦": 2561,
      "河": 2562,
      "油": 2563,
      "治": 2564,
      "沽": 2565,
      "泉": 2566,
      "泊": 2567,
      "泓": 2568,
      "法": 2569,
      "波": 2570,
      "注": 2571,
      "泰": 2572,
      "泽": 2573,
      "洋": 2574,
      "洛": 2575,
      "洪": 2576,
      "洲": 2577,
      "活": 2578,
      "派": 2579,
      "流": 2580,
      "济": 2581,
      "浣": 2582,
      "浩": 2583,
      "浪": 2584,
      "浮": 2585,
      "浴": 2586,
      "海": 2587,
      "浸": 2588,
      "消": 2589,
      "涉": 2590,
      "涛": 2591,
      "润": 2592,
      "液": 2593,
      "淫": 2594,
      "深": 2595,
      "淵": 2596,
      "淸": 2597,
      "清": 2598,
      "済": 2599,
      "渔": 2600,
      "渗": 2601,
      "減": 2602,
      "渡": 2603,
      "渣": 2604,
      "温": 2605,
      "港": 2606,
      "游": 2607,
      "湾": 2608,
      "源": 2609,
      "溝": 2610,
      "溫": 2611,
      "滅": 2612,
      "滋": 2613,
      "滞": 2614,
      "滿": 2615,
      "漂": 2616,
      "漆": 2617,
      "漏": 2618,
      "演": 2619,
      "漢": 2620,
      "漫": 2621,
      "潔": 2622,
      "潘": 2623,
      "潜": 2624,
      "潤": 2625,
      "澄": 2626,
      "澣": 2627,
      "澤": 2628,
      "澳": 2629,
      "澹": 2630,
      "激": 2631,
      "濒": 2632,
      "濟": 2633,
      "灌": 2634,
      "火": 2635,
      "灭": 2636,
      "灯": 2637,
      "灵": 2638,
      "灾": 2639,
      "炳": 2640,
      "点": 2641,
      "為": 2642,
      "烈": 2643,
      "烏": 2644,
      "烦": 2645,
      "热": 2646,
      "焉": 2647,
      "焚": 2648,
      "無": 2649,
      "然": 2650,
      "煥": 2651,
      "照": 2652,
      "煮": 2653,
      "煽": 2654,
      "熒": 2655,
      "熟": 2656,
      "熱": 2657,
      "燕": 2658,
      "爭": 2659,
      "爱": 2660,
      "爲": 2661,
      "父": 2662,
      "爽": 2663,
      "爾": 2664,
      "牆": 2665,
      "片": 2666,
      "版": 2667,
      "牖": 2668,
      "牛": 2669,
      "牟": 2670,
      "牢": 2671,
      "物": 2672,
      "特": 2673,
      "犁": 2674,
      "犬": 2675,
      "犯": 2676,
      "状": 2677,
      "狂": 2678,
      "狄": 2679,
      "狎": 2680,
      "狐": 2681,
      "狗": 2682,
      "猎": 2683,
      "猛": 2684,
      "猪": 2685,
      "猫": 2686,
      "献": 2687,
      "猶": 2688,
      "獄": 2689,
      "獎": 2690,
      "獨": 2691,
      "獲": 2692,
      "玄": 2693,
      "率": 2694,
      "玉": 2695,
      "王": 2696,
      "玩": 2697,
      "环": 2698,
      "现": 2699,
      "班": 2700,
      "現": 2701,
      "球": 2702,
      "理": 2703,
      "琢": 2704,
      "琳": 2705,
      "瑚": 2706,
      "瑛": 2707,
      "瑟": 2708,
      "璉": 2709,
      "瓜": 2710,
      "瓢": 2711,
      "瓣": 2712,
      "甚": 2713,
      "生": 2714,
      "產": 2715,
      "用": 2716,
      "甫": 2717,
      "甯": 2718,
      "田": 2719,
      "由": 2720,
      "甲": 2721,
      "申": 2722,
      "电": 2723,
      "男": 2724,
      "町": 2725,
      "画": 2726,
      "界": 2727,
      "畏": 2728,
      "畔": 2729,
      "留": 2730,
      "畜": 2731,
      "略": 2732,
      "番": 2733,
      "畫": 2734,
      "異": 2735,
      "畳": 2736,
      "當": 2737,
      "疆": 2738,
      "疏": 2739,
      "疑": 2740,
      "疗": 2741,
      "疚": 2742,
      "疾": 2743,
      "病": 2744,
      "症": 2745,
      "発": 2746,
      "發": 2747,
      "白": 2748,
      "百": 2749,
      "的": 2750,
      "皆": 2751,
      "皦": 2752,
      "皮": 2753,
      "皿": 2754,
      "盃": 2755,
      "盈": 2756,
      "益": 2757,
      "盍": 2758,
      "盛": 2759,
      "盜": 2760,
      "盟": 2761,
      "盡": 2762,
      "監": 2763,
      "盧": 2764,
      "目": 2765,
      "盲": 2766,
      "直": 2767,
      "相": 2768,
      "盼": 2769,
      "盾": 2770,
      "省": 2771,
      "看": 2772,
      "真": 2773,
      "眼": 2774,
      "眾": 2775,
      "着": 2776,
      "督": 2777,
      "瞻": 2778,
      "瞽": 2779,
      "矛": 2780,
      "矢": 2781,
      "矣": 2782,
      "知": 2783,
      "矩": 2784,
      "短": 2785,
      "石": 2786,
      "研": 2787,
      "砕": 2788,
      "破": 2789,
      "砽": 2790,
      "确": 2791,
      "確": 2792,
      "磋": 2793,
      "磨": 2794,
      "磯": 2795,
      "礁": 2796,
      "礎": 2797,
      "示": 2798,
      "礼": 2799,
      "社": 2800,
      "祇": 2801,
      "祈": 2802,
      "祖": 2803,
      "祗": 2804,
      "祝": 2805,
      "神": 2806,
      "祥": 2807,
      "票": 2808,
      "祭": 2809,
      "祷": 2810,
      "祿": 2811,
      "禁": 2812,
      "福": 2813,
      "禘": 2814,
      "禦": 2815,
      "禮": 2816,
      "禱": 2817,
      "禹": 2818,
      "离": 2819,
      "禽": 2820,
      "禾": 2821,
      "秀": 2822,
      "私": 2823,
      "种": 2824,
      "科": 2825,
      "秘": 2826,
      "秦": 2827,
      "秧": 2828,
      "积": 2829,
      "移": 2830,
      "程": 2831,
      "稚": 2832,
      "種": 2833,
      "稱": 2834,
      "稷": 2835,
      "稿": 2836,
      "穀": 2837,
      "穆": 2838,
      "積": 2839,
      "究": 2840,
      "空": 2841,
      "突": 2842,
      "竈": 2843,
      "竊": 2844,
      "立": 2845,
      "站": 2846,
      "竞": 2847,
      "竟": 2848,
      "章": 2849,
      "童": 2850,
      "竭": 2851,
      "端": 2852,
      "竺": 2853,
      "笑": 2854,
      "第": 2855,
      "等": 2856,
      "策": 2857,
      "签": 2858,
      "箕": 2859,
      "算": 2860,
      "管": 2861,
      "節": 2862,
      "築": 2863,
      "篤": 2864,
      "簞": 2865,
      "簡": 2866,
      "簣": 2867,
      "籍": 2868,
      "籩": 2869,
      "米": 2870,
      "类": 2871,
      "粗": 2872,
      "粟": 2873,
      "粹": 2874,
      "精": 2875,
      "糞": 2876,
      "系": 2877,
      "紀": 2878,
      "約": 2879,
      "紅": 2880,
      "紋": 2881,
      "納": 2882,
      "紐": 2883,
      "純": 2884,
      "紙": 2885,
      "素": 2886,
      "紫": 2887,
      "細": 2888,
      "紳": 2889,
      "紺": 2890,
      "終": 2891,
      "組": 2892,
      "経": 2893,
      "絏": 2894,
      "結": 2895,
      "絕": 2896,
      "絞": 2897,
      "絡": 2898,
      "絢": 2899,
      "給": 2900,
      "統": 2901,
      "絶": 2902,
      "絺": 2903,
      "綌": 2904,
      "綏": 2905,
      "継": 2906,
      "続": 2907,
      "維": 2908,
      "綱": 2909,
      "網": 2910,
      "綺": 2911,
      "緅": 2912,
      "緇": 2913,
      "緊": 2914,
      "総": 2915,
      "緑": 2916,
      "線": 2917,
      "編": 2918,
      "練": 2919,
      "縕": 2920,
      "縱": 2921,
      "縲": 2922,
      "繪": 2923,
      "繹": 2924,
      "繼": 2925,
      "红": 2926,
      "约": 2927,
      "纯": 2928,
      "线": 2929,
      "组": 2930,
      "织": 2931,
      "终": 2932,
      "经": 2933,
      "绕": 2934,
      "给": 2935,
      "络": 2936,
      "绝": 2937,
      "统": 2938,
      "绩": 2939,
      "维": 2940,
      "综": 2941,
      "缅": 2942,
      "缓": 2943,
      "编": 2944,
      "缩": 2945,
      "缺": 2946,
      "网": 2947,
      "罔": 2948,
      "罕": 2949,
      "罗": 2950,
      "罚": 2951,
      "罡": 2952,
      "罪": 2953,
      "置": 2954,
      "罷": 2955,
      "羅": 2956,
      "羊": 2957,
      "美": 2958,
      "羔": 2959,
      "群": 2960,
      "義": 2961,
      "羹": 2962,
      "羽": 2963,
      "習": 2964,
      "翔": 2965,
      "翕": 2966,
      "翻": 2967,
      "翼": 2968,
      "老": 2969,
      "考": 2970,
      "者": 2971,
      "而": 2972,
      "耳": 2973,
      "耻": 2974,
      "耿": 2975,
      "联": 2976,
      "聖": 2977,
      "聘": 2978,
      "聚": 2979,
      "聞": 2980,
      "職": 2981,
      "聽": 2982,
      "聿": 2983,
      "肉": 2984,
      "肤": 2985,
      "肥": 2986,
      "肱": 2987,
      "育": 2988,
      "胁": 2989,
      "胃": 2990,
      "背": 2991,
      "胡": 2992,
      "能": 2993,
      "脂": 2994,
      "脉": 2995,
      "脚": 2996,
      "脩": 2997,
      "脫": 2998,
      "脯": 2999,
      "脱": 3000,
      "腊": 3001,
      "腔": 3002,
      "腥": 3003,
      "膚": 3004,
      "膾": 3005,
      "臘": 3006,
      "臣": 3007,
      "臧": 3008,
      "臨": 3009,
      "自": 3010,
      "臭": 3011,
      "至": 3012,
      "致": 3013,
      "臺": 3014,
      "與": 3015,
      "興": 3016,
      "舊": 3017,
      "舌": 3018,
      "舍": 3019,
      "舎": 3020,
      "舜": 3021,
      "舞": 3022,
      "航": 3023,
      "般": 3024,
      "舵": 3025,
      "船": 3026,
      "艙": 3027,
      "艦": 3028,
      "良": 3029,
      "色": 3030,
      "节": 3031,
      "芒": 3032,
      "芝": 3033,
      "花": 3034,
      "苔": 3035,
      "苗": 3036,
      "苟": 3037,
      "若": 3038,
      "苦": 3039,
      "英": 3040,
      "范": 3041,
      "茲": 3042,
      "荐": 3043,
      "荧": 3044,
      "莊": 3045,
      "莫": 3046,
      "获": 3047,
      "菊": 3048,
      "菜": 3049,
      "華": 3050,
      "菲": 3051,
      "菻": 3052,
      "萌": 3053,
      "萬": 3054,
      "落": 3055,
      "葉": 3056,
      "著": 3057,
      "董": 3058,
      "葬": 3059,
      "葱": 3060,
      "葸": 3061,
      "蓄": 3062,
      "蓋": 3063,
      "蔡": 3064,
      "蔽": 3065,
      "蕩": 3066,
      "薄": 3067,
      "薑": 3068,
      "薛": 3069,
      "薦": 3070,
      "藏": 3071,
      "藝": 3072,
      "藤": 3073,
      "藥": 3074,
      "虎": 3075,
      "虐": 3076,
      "處": 3077,
      "虚": 3078,
      "虛": 3079,
      "虞": 3080,
      "虫": 3081,
      "虽": 3082,
      "蛇": 3083,
      "蛟": 3084,
      "蛮": 3085,
      "蝉": 3086,
      "蝠": 3087,
      "融": 3088,
      "蟬": 3089,
      "蠢": 3090,
      "蠹": 3091,
      "血": 3092,
      "衆": 3093,
      "行": 3094,
      "衍": 3095,
      "衞": 3096,
      "衡": 3097,
      "衣": 3098,
      "表": 3099,
      "衰": 3100,
      "衾": 3101,
      "袁": 3102,
      "袂": 3103,
      "袍": 3104,
      "袖": 3105,
      "袗": 3106,
      "被": 3107,
      "裁": 3108,
      "裂": 3109,
      "裕": 3110,
      "裘": 3111,
      "補": 3112,
      "裳": 3113,
      "裵": 3114,
      "複": 3115,
      "褻": 3116,
      "襲": 3117,
      "西": 3118,
      "要": 3119,
      "覆": 3120,
      "見": 3121,
      "規": 3122,
      "視": 3123,
      "覚": 3124,
      "覧": 3125,
      "親": 3126,
      "覿": 3127,
      "觀": 3128,
      "见": 3129,
      "观": 3130,
      "规": 3131,
      "视": 3132,
      "角": 3133,
      "觚": 3134,
      "觜": 3135,
      "解": 3136,
      "触": 3137,
      "言": 3138,
      "訂": 3139,
      "計": 3140,
      "訒": 3141,
      "託": 3142,
      "記": 3143,
      "訟": 3144,
      "訥": 3145,
      "設": 3146,
      "許": 3147,
      "訳": 3148,
      "詐": 3149,
      "評": 3150,
      "詠": 3151,
      "試": 3152,
      "詩": 3153,
      "話": 3154,
      "該": 3155,
      "詳": 3156,
      "誄": 3157,
      "誅": 3158,
      "誌": 3159,
      "認": 3160,
      "誘": 3161,
      "語": 3162,
      "誠": 3163,
      "誦": 3164,
      "誨": 3165,
      "說": 3166,
      "説": 3167,
      "読": 3168,
      "誰": 3169,
      "誾": 3170,
      "調": 3171,
      "諂": 3172,
      "談": 3173,
      "請": 3174,
      "論": 3175,
      "諦": 3176,
      "諫": 3177,
      "諸": 3178,
      "諾": 3179,
      "謀": 3180,
      "謁": 3181,
      "謂": 3182,
      "謎": 3183,
      "謙": 3184,
      "講": 3185,
      "謹": 3186,
      "譖": 3187,
      "識": 3188,
      "警": 3189,
      "譬": 3190,
      "議": 3191,
      "護": 3192,
      "讀": 3193,
      "變": 3194,
      "讓": 3195,
      "计": 3196,
      "认": 3197,
      "让": 3198,
      "议": 3199,
      "讯": 3200,
      "记": 3201,
      "论": 3202,
      "识": 3203,
      "词": 3204,
      "译": 3205,
      "试": 3206,
      "话": 3207,
      "该": 3208,
      "语": 3209,
      "误": 3210,
      "说": 3211,
      "请": 3212,
      "诸": 3213,
      "读": 3214,
      "谁": 3215,
      "调": 3216,
      "谊": 3217,
      "谋": 3218,
      "谷": 3219,
      "豆": 3220,
      "豈": 3221,
      "豚": 3222,
      "豪": 3223,
      "豹": 3224,
      "貉": 3225,
      "貌": 3226,
      "貓": 3227,
      "貝": 3228,
      "負": 3229,
      "財": 3230,
      "貢": 3231,
      "貧": 3232,
      "貨": 3233,
      "貫": 3234,
      "貳": 3235,
      "貴": 3236,
      "買": 3237,
      "費": 3238,
      "貿": 3239,
      "賀": 3240,
      "賂": 3241,
      "資": 3242,
      "賈": 3243,
      "賊": 3244,
      "賓": 3245,
      "賜": 3246,
      "賞": 3247,
      "賢": 3248,
      "賤": 3249,
      "賦": 3250,
      "質": 3251,
      "購": 3252,
      "责": 3253,
      "账": 3254,
      "货": 3255,
      "质": 3256,
      "贵": 3257,
      "费": 3258,
      "资": 3259,
      "赛": 3260,
      "赢": 3261,
      "赤": 3262,
      "走": 3263,
      "赵": 3264,
      "起": 3265,
      "超": 3266,
      "越": 3267,
      "趙": 3268,
      "趣": 3269,
      "趨": 3270,
      "足": 3271,
      "跃": 3272,
      "跡": 3273,
      "跨": 3274,
      "路": 3275,
      "踊": 3276,
      "踏": 3277,
      "踐": 3278,
      "踖": 3279,
      "踧": 3280,
      "踩": 3281,
      "踰": 3282,
      "蹜": 3283,
      "躍": 3284,
      "躩": 3285,
      "身": 3286,
      "躬": 3287,
      "車": 3288,
      "軌": 3289,
      "軍": 3290,
      "軏": 3291,
      "転": 3292,
      "載": 3293,
      "輕": 3294,
      "輗": 3295,
      "輪": 3296,
      "转": 3297,
      "轮": 3298,
      "轸": 3299,
      "轻": 3300,
      "载": 3301,
      "较": 3302,
      "辅": 3303,
      "辑": 3304,
      "辛": 3305,
      "辟": 3306,
      "辣": 3307,
      "辨": 3308,
      "辭": 3309,
      "辯": 3310,
      "辰": 3311,
      "辱": 3312,
      "農": 3313,
      "边": 3314,
      "辺": 3315,
      "辻": 3316,
      "込": 3317,
      "达": 3318,
      "迅": 3319,
      "过": 3320,
      "迎": 3321,
      "运": 3322,
      "近": 3323,
      "返": 3324,
      "还": 3325,
      "这": 3326,
      "进": 3327,
      "远": 3328,
      "迫": 3329,
      "述": 3330,
      "追": 3331,
      "退": 3332,
      "送": 3333,
      "适": 3334,
      "逃": 3335,
      "选": 3336,
      "透": 3337,
      "逐": 3338,
      "递": 3339,
      "途": 3340,
      "逗": 3341,
      "這": 3342,
      "通": 3343,
      "逝": 3344,
      "逞": 3345,
      "速": 3346,
      "造": 3347,
      "連": 3348,
      "逮": 3349,
      "週": 3350,
      "進": 3351,
      "逸": 3352,
      "遂": 3353,
      "遇": 3354,
      "遊": 3355,
      "運": 3356,
      "遍": 3357,
      "過": 3358,
      "道": 3359,
      "達": 3360,
      "違": 3361,
      "遗": 3362,
      "遞": 3363,
      "遠": 3364,
      "遣": 3365,
      "適": 3366,
      "遭": 3367,
      "遲": 3368,
      "遷": 3369,
      "選": 3370,
      "遺": 3371,
      "避": 3372,
      "還": 3373,
      "邊": 3374,
      "邑": 3375,
      "邓": 3376,
      "那": 3377,
      "邦": 3378,
      "邪": 3379,
      "邮": 3380,
      "郁": 3381,
      "郎": 3382,
      "部": 3383,
      "郭": 3384,
      "郷": 3385,
      "都": 3386,
      "鄒": 3387,
      "鄕": 3388,
      "鄙": 3389,
      "鄭": 3390,
      "鄰": 3391,
      "配": 3392,
      "酒": 3393,
      "酔": 3394,
      "酝": 3395,
      "酷": 3396,
      "酿": 3397,
      "醬": 3398,
      "醯": 3399,
      "采": 3400,
      "释": 3401,
      "里": 3402,
      "重": 3403,
      "野": 3404,
      "量": 3405,
      "金": 3406,
      "釣": 3407,
      "銀": 3408,
      "銘": 3409,
      "錄": 3410,
      "錯": 3411,
      "鍋": 3412,
      "鍾": 3413,
      "鎮": 3414,
      "鏗": 3415,
      "鏡": 3416,
      "鐸": 3417,
      "鑽": 3418,
      "钩": 3419,
      "铁": 3420,
      "银": 3421,
      "链": 3422,
      "键": 3423,
      "镇": 3424,
      "長": 3425,
      "长": 3426,
      "門": 3427,
      "閉": 3428,
      "開": 3429,
      "閏": 3430,
      "間": 3431,
      "閔": 3432,
      "関": 3433,
      "閱": 3434,
      "閲": 3435,
      "閾": 3436,
      "闆": 3437,
      "闇": 3438,
      "闕": 3439,
      "關": 3440,
      "门": 3441,
      "问": 3442,
      "间": 3443,
      "闻": 3444,
      "阅": 3445,
      "阜": 3446,
      "阝": 3447,
      "阪": 3448,
      "防": 3449,
      "阳": 3450,
      "阴": 3451,
      "阶": 3452,
      "阻": 3453,
      "阼": 3454,
      "附": 3455,
      "际": 3456,
      "陋": 3457,
      "降": 3458,
      "限": 3459,
      "院": 3460,
      "除": 3461,
      "险": 3462,
      "陰": 3463,
      "陳": 3464,
      "陷": 3465,
      "陸": 3466,
      "陽": 3467,
      "隅": 3468,
      "隆": 3469,
      "隊": 3470,
      "隋": 3471,
      "階": 3472,
      "随": 3473,
      "際": 3474,
      "障": 3475,
      "隨": 3476,
      "隱": 3477,
      "隻": 3478,
      "难": 3479,
      "雄": 3480,
      "雅": 3481,
      "集": 3482,
      "雉": 3483,
      "雌": 3484,
      "雍": 3485,
      "雎": 3486,
      "雕": 3487,
      "雖": 3488,
      "雜": 3489,
      "離": 3490,
      "難": 3491,
      "雨": 3492,
      "雩": 3493,
      "雪": 3494,
      "雰": 3495,
      "雲": 3496,
      "雷": 3497,
      "電": 3498,
      "需": 3499,
      "震": 3500,
      "露": 3501,
      "霸": 3502,
      "青": 3503,
      "静": 3504,
      "靜": 3505,
      "非": 3506,
      "靠": 3507,
      "靡": 3508,
      "面": 3509,
      "革": 3510,
      "鞠": 3511,
      "鞭": 3512,
      "鞹": 3513,
      "韓": 3514,
      "韞": 3515,
      "韩": 3516,
      "音": 3517,
      "韶": 3518,
      "響": 3519,
      "項": 3520,
      "順": 3521,
      "頊": 3522,
      "頌": 3523,
      "頑": 3524,
      "頒": 3525,
      "領": 3526,
      "頭": 3527,
      "頻": 3528,
      "題": 3529,
      "額": 3530,
      "顏": 3531,
      "顓": 3532,
      "顔": 3533,
      "願": 3534,
      "顚": 3535,
      "類": 3536,
      "顧": 3537,
      "顯": 3538,
      "顺": 3539,
      "须": 3540,
      "顼": 3541,
      "预": 3542,
      "领": 3543,
      "题": 3544,
      "颛": 3545,
      "颜": 3546,
      "風": 3547,
      "风": 3548,
      "飛": 3549,
      "飞": 3550,
      "食": 3551,
      "飪": 3552,
      "飮": 3553,
      "飯": 3554,
      "飽": 3555,
      "飾": 3556,
      "餅": 3557,
      "養": 3558,
      "餒": 3559,
      "餘": 3560,
      "館": 3561,
      "餲": 3562,
      "餼": 3563,
      "饉": 3564,
      "饋": 3565,
      "饌": 3566,
      "饐": 3567,
      "饑": 3568,
      "首": 3569,
      "香": 3570,
      "馬": 3571,
      "馮": 3572,
      "駐": 3573,
      "駕": 3574,
      "駟": 3575,
      "騂": 3576,
      "騒": 3577,
      "験": 3578,
      "騫": 3579,
      "驕": 3580,
      "马": 3581,
      "验": 3582,
      "骗": 3583,
      "髄": 3584,
      "體": 3585,
      "高": 3586,
      "鬼": 3587,
      "魋": 3588,
      "魚": 3589,
      "魯": 3590,
      "鮀": 3591,
      "鮮": 3592,
      "鯉": 3593,
      "鱼": 3594,
      "鲁": 3595,
      "鲜": 3596,
      "鳥": 3597,
      "鳳": 3598,
      "鳴": 3599,
      "鹏": 3600,
      "鹰": 3601,
      "麑": 3602,
      "麗": 3603,
      "麦": 3604,
      "麵": 3605,
      "麻": 3606,
      "黃": 3607,
      "黄": 3608,
      "黑": 3609,
      "黒": 3610,
      "默": 3611,
      "點": 3612,
      "黨": 3613,
      "黯": 3614,
      "黻": 3615,
      "鼓": 3616,
      "鼠": 3617,
      "齊": 3618,
      "齋": 3619,
      "龍": 3620,
      "龙": 3621,
      "龜": 3622,
      "龟": 3623,
      "가": 3624,
      "각": 3625,
      "간": 3626,
      "갈": 3627,
      "감": 3628,
      "갔": 3629,
      "강": 3630,
      "갖": 3631,
      "개": 3632,
      "거": 3633,
      "건": 3634,
      "걸": 3635,
      "것": 3636,
      "게": 3637,
      "겠": 3638,
      "격": 3639,
      "결": 3640,
      "겼": 3641,
      "계": 3642,
      "고": 3643,
      "곡": 3644,
      "골": 3645,
      "곰": 3646,
      "곳": 3647,
      "공": 3648,
      "과": 3649,
      "곽": 3650,
      "관": 3651,
      "교": 3652,
      "구": 3653,
      "국": 3654,
      "권": 3655,
      "그": 3656,
      "극": 3657,
      "근": 3658,
      "글": 3659,
      "급": 3660,
      "기": 3661,
      "긴": 3662,
      "김": 3663,
      "까": 3664,
      "깡": 3665,
      "끌": 3666,
      "나": 3667,
      "난": 3668,
      "남": 3669,
      "낭": 3670,
      "내": 3671,
      "냥": 3672,
      "너": 3673,
      "넘": 3674,
      "네": 3675,
      "년": 3676,
      "노": 3677,
      "누": 3678,
      "눈": 3679,
      "는": 3680,
      "늘": 3681,
      "능": 3682,
      "니": 3683,
      "닝": 3684,
      "다": 3685,
      "단": 3686,
      "달": 3687,
      "담": 3688,
      "답": 3689,
      "당": 3690,
      "대": 3691,
      "더": 3692,
      "던": 3693,
      "데": 3694,
      "도": 3695,
      "독": 3696,
      "돌": 3697,
      "동": 3698,
      "되": 3699,
      "된": 3700,
      "두": 3701,
      "뒤": 3702,
      "듀": 3703,
      "드": 3704,
      "들": 3705,
      "등": 3706,
      "디": 3707,
      "따": 3708,
      "때": 3709,
      "땡": 3710,
      "또": 3711,
      "뜻": 3712,
      "띈": 3713,
      "라": 3714,
      "란": 3715,
      "람": 3716,
      "랑": 3717,
      "래": 3718,
      "랭": 3719,
      "량": 3720,
      "러": 3721,
      "런": 3722,
      "레": 3723,
      "려": 3724,
      "력": 3725,
      "련": 3726,
      "렬": 3727,
      "렴": 3728,
      "렸": 3729,
      "례": 3730,
      "로": 3731,
      "롯": 3732,
      "롱": 3733,
      "료": 3734,
      "루": 3735,
      "룹": 3736,
      "류": 3737,
      "르": 3738,
      "를": 3739,
      "리": 3740,
      "릭": 3741,
      "린": 3742,
      "릴": 3743,
      "림": 3744,
      "릿": 3745,
      "마": 3746,
      "만": 3747,
      "많": 3748,
      "말": 3749,
      "맛": 3750,
      "망": 3751,
      "매": 3752,
      "맨": 3753,
      "맹": 3754,
      "먹": 3755,
      "먼": 3756,
      "메": 3757,
      "멤": 3758,
      "며": 3759,
      "면": 3760,
      "명": 3761,
      "모": 3762,
      "못": 3763,
      "무": 3764,
      "문": 3765,
      "물": 3766,
      "뭇": 3767,
      "뮤": 3768,
      "미": 3769,
      "민": 3770,
      "밀": 3771,
      "바": 3772,
      "박": 3773,
      "반": 3774,
      "받": 3775,
      "발": 3776,
      "밤": 3777,
      "방": 3778,
      "배": 3779,
      "백": 3780,
      "뱃": 3781,
      "버": 3782,
      "범": 3783,
      "베": 3784,
      "변": 3785,
      "보": 3786,
      "볶": 3787,
      "본": 3788,
      "봤": 3789,
      "부": 3790,
      "분": 3791,
      "불": 3792,
      "뷰": 3793,
      "브": 3794,
      "비": 3795,
      "빛": 3796,
      "쁘": 3797,
      "사": 3798,
      "삭": 3799,
      "산": 3800,
      "상": 3801,
      "새": 3802,
      "색": 3803,
      "생": 3804,
      "서": 3805,
      "석": 3806,
      "선": 3807,
      "설": 3808,
      "성": 3809,
      "세": 3810,
      "셔": 3811,
      "소": 3812,
      "속": 3813,
      "손": 3814,
      "송": 3815,
      "수": 3816,
      "숙": 3817,
      "순": 3818,
      "쉬": 3819,
      "스": 3820,
      "슬": 3821,
      "습": 3822,
      "승": 3823,
      "시": 3824,
      "식": 3825,
      "신": 3826,
      "실": 3827,
      "심": 3828,
      "싱": 3829,
      "싶": 3830,
      "싸": 3831,
      "씨": 3832,
      "씹": 3833,
      "아": 3834,
      "악": 3835,
      "안": 3836,
      "알": 3837,
      "았": 3838,
      "앞": 3839,
      "앤": 3840,
      "야": 3841,
      "약": 3842,
      "얍": 3843,
      "양": 3844,
      "어": 3845,
      "억": 3846,
      "언": 3847,
      "얼": 3848,
      "엄": 3849,
      "업": 3850,
      "없": 3851,
      "었": 3852,
      "에": 3853,
      "엑": 3854,
      "엔": 3855,
      "여": 3856,
      "연": 3857,
      "열": 3858,
      "염": 3859,
      "였": 3860,
      "영": 3861,
      "예": 3862,
      "오": 3863,
      "올": 3864,
      "옴": 3865,
      "옹": 3866,
      "와": 3867,
      "완": 3868,
      "왔": 3869,
      "왕": 3870,
      "왠": 3871,
      "외": 3872,
      "요": 3873,
      "우": 3874,
      "운": 3875,
      "울": 3876,
      "워": 3877,
      "원": 3878,
      "월": 3879,
      "위": 3880,
      "유": 3881,
      "육": 3882,
      "윤": 3883,
      "으": 3884,
      "은": 3885,
      "을": 3886,
      "음": 3887,
      "응": 3888,
      "의": 3889,
      "이": 3890,
      "인": 3891,
      "일": 3892,
      "임": 3893,
      "입": 3894,
      "있": 3895,
      "자": 3896,
      "작": 3897,
      "잘": 3898,
      "잡": 3899,
      "장": 3900,
      "쟁": 3901,
      "저": 3902,
      "적": 3903,
      "전": 3904,
      "접": 3905,
      "정": 3906,
      "제": 3907,
      "져": 3908,
      "조": 3909,
      "존": 3910,
      "종": 3911,
      "좋": 3912,
      "죠": 3913,
      "주": 3914,
      "준": 3915,
      "줄": 3916,
      "중": 3917,
      "쥬": 3918,
      "증": 3919,
      "지": 3920,
      "직": 3921,
      "진": 3922,
      "집": 3923,
      "쩌": 3924,
      "차": 3925,
      "참": 3926,
      "채": 3927,
      "천": 3928,
      "첫": 3929,
      "쳤": 3930,
      "최": 3931,
      "추": 3932,
      "출": 3933,
      "춰": 3934,
      "측": 3935,
      "치": 3936,
      "칙": 3937,
      "친": 3938,
      "침": 3939,
      "카": 3940,
      "케": 3941,
      "켄": 3942,
      "켰": 3943,
      "콘": 3944,
      "콜": 3945,
      "콥": 3946,
      "쿠": 3947,
      "퀴": 3948,
      "키": 3949,
      "킬": 3950,
      "킹": 3951,
      "타": 3952,
      "탄": 3953,
      "태": 3954,
      "터": 3955,
      "테": 3956,
      "텝": 3957,
      "토": 3958,
      "톡": 3959,
      "톨": 3960,
      "통": 3961,
      "투": 3962,
      "트": 3963,
      "티": 3964,
      "팀": 3965,
      "팅": 3966,
      "파": 3967,
      "팝": 3968,
      "패": 3969,
      "팬": 3970,
      "편": 3971,
      "펼": 3972,
      "평": 3973,
      "포": 3974,
      "폰": 3975,
      "프": 3976,
      "하": 3977,
      "한": 3978,
      "할": 3979,
      "합": 3980,
      "핫": 3981,
      "해": 3982,
      "했": 3983,
      "허": 3984,
      "헤": 3985,
      "혁": 3986,
      "현": 3987,
      "혈": 3988,
      "형": 3989,
      "호": 3990,
      "홍": 3991,
      "화": 3992,
      "확": 3993,
      "환": 3994,
      "활": 3995,
      "황": 3996,
      "회": 3997,
      "획": 3998,
      "후": 3999,
      "훈": 4000,
      "휘": 4001,
      "흐": 4002,
      "흥": 4003,
      "희": 4004,
      "힌": 4005,
      "": 4006,
      "": 4007,
      "": 4008,
      "": 4009,
      "": 4010,
      "": 4011,
      "": 4012,
      "": 4013,
      "": 4014,
      "": 4015,
      "": 4016,
      "": 4017,
      "": 4018,
      "": 4019,
      "": 4020,
      "": 4021,
      "": 4022,
      "": 4023,
      "": 4024,
      "": 4025,
      "": 4026,
      "": 4027,
      "": 4028,
      "": 4029,
      "": 4030,
      "": 4031,
      "": 4032,
      "": 4033,
      "": 4034,
      "": 4035,
      "": 4036,
      "": 4037,
      "": 4038,
      "": 4039,
      "": 4040,
      "": 4041,
      "": 4042,
      "": 4043,
      "": 4044,
      "": 4045,
      "": 4046,
      "ﬁ": 4047,
      "ﬂ": 4048,
      "ﬄ": 4049,
      "ﷺ": 4050,
      "ﷻ": 4051,
      "︎": 4052,
      "️": 4053,
      "﹘": 4054,
      "﻿": 4055,
      "！": 4056,
      "＆": 4057,
      "（": 4058,
      "）": 4059,
      "，": 4060,
      "－": 4061,
      "／": 4062,
      "０": 4063,
      "１": 4064,
      "２": 4065,
      "３": 4066,
      "４": 4067,
      "５": 4068,
      "６": 4069,
      "７": 4070,
      "：": 4071,
      "；": 4072,
      "＜": 4073,
      "＞": 4074,
      "？": 4075,
      "Ａ": 4076,
      "Ｂ": 4077,
      "Ｄ": 4078,
      "Ｉ": 4079,
      "Ｋ": 4080,
      "Ｎ": 4081,
      "Ｏ": 4082,
      "Ｐ": 4083,
      "Ｓ": 4084,
      "Ｕ": 4085,
      "Ｖ": 4086,
      "＿": 4087,
      "｀": 4088,
      "ｅ": 4089,
      "ｉ": 4090,
      "ｍ": 4091,
      "ｓ": 4092,
      "～": 4093,
      "｡": 4094,
      "･": 4095,
      "ｯ": 4096,
      "ｸ": 4097,
      "ﾉ": 4098,
      "ﾞ": 4099,
      "ﾟ": 4100,
      "ￂ": 4101,
      "￢": 4102,
      "￼": 4103,
      "�": 4104,
      "🀄": 4105,
      "🇦": 4106,
      "🇧": 4107,
      "🇨": 4108,
      "🇪": 4109,
      "🇬": 4110,
      "🇲": 4111,
      "🇵": 4112,
      "🇷": 4113,
      "🇸": 4114,
      "🇺": 4115,
      "🇽": 4116,
      "🌅": 4117,
      "🌇": 4118,
      "🌈": 4119,
      "🌊": 4120,
      "🌍": 4121,
      "🌎": 4122,
      "🌏": 4123,
      "🌧": 4124,
      "🌲": 4125,
      "🌸": 4126,
      "🌹": 4127,
      "🌻": 4128,
      "🍁": 4129,
      "🍂": 4130,
      "🍍": 4131,
      "🍎": 4132,
      "🍕": 4133,
      "🍸": 4134,
      "🍻": 4135,
      "🍽": 4136,
      "🎀": 4137,
      "🎁": 4138,
      "🎂": 4139,
      "🎄": 4140,
      "🎉": 4141,
      "🎊": 4142,
      "🎑": 4143,
      "🎓": 4144,
      "🎗": 4145,
      "🎤": 4146,
      "🎥": 4147,
      "🎨": 4148,
      "🎬": 4149,
      "🎭": 4150,
      "🎴": 4151,
      "🎶": 4152,
      "🎹": 4153,
      "🏀": 4154,
      "🏃": 4155,
      "🏈": 4156,
      "🏝": 4157,
      "🏻": 4158,
      "🏼": 4159,
      "🏽": 4160,
      "🏾": 4161,
      "🏿": 4162,
      "🐅": 4163,
      "🐏": 4164,
      "🐓": 4165,
      "🐠": 4166,
      "🐰": 4167,
      "🐴": 4168,
      "🐸": 4169,
      "🐾": 4170,
      "👀": 4171,
      "👇": 4172,
      "👈": 4173,
      "👉": 4174,
      "👊": 4175,
      "👋": 4176,
      "👌": 4177,
      "👍": 4178,
      "👎": 4179,
      "👏": 4180,
      "👐": 4181,
      "👑": 4182,
      "👓": 4183,
      "👫": 4184,
      "👬": 4185,
      "👭": 4186,
      "👯": 4187,
      "👱": 4188,
      "👹": 4189,
      "👻": 4190,
      "👿": 4191,
      "💀": 4192,
      "💁": 4193,
      "💃": 4194,
      "💅": 4195,
      "💋": 4196,
      "💑": 4197,
      "💕": 4198,
      "💙": 4199,
      "💚": 4200,
      "💛": 4201,
      "💜": 4202,
      "💞": 4203,
      "💡": 4204,
      "💤": 4205,
      "💥": 4206,
      "💩": 4207,
      "💭": 4208,
      "💯": 4209,
      "💻": 4210,
      "📂": 4211,
      "📈": 4212,
      "📚": 4213,
      "📣": 4214,
      "📰": 4215,
      "📱": 4216,
      "📷": 4217,
      "📸": 4218,
      "📹": 4219,
      "📺": 4220,
      "🔊": 4221,
      "🔖": 4222,
      "🔗": 4223,
      "🔥": 4224,
      "🔫": 4225,
      "🔴": 4226,
      "🔹": 4227,
      "🕯": 4228,
      "🗽": 4229,
      "😀": 4230,
      "😁": 4231,
      "😂": 4232,
      "😃": 4233,
      "😄": 4234,
      "😅": 4235,
      "😆": 4236,
      "😇": 4237,
      "😈": 4238,
      "😉": 4239,
      "😊": 4240,
      "😍": 4241,
      "😎": 4242,
      "😏": 4243,
      "😐": 4244,
      "😑": 4245,
      "😒": 4246,
      "😔": 4247,
      "😛": 4248,
      "😜": 4249,
      "😞": 4250,
      "😡": 4251,
      "😤": 4252,
      "😥": 4253,
      "😦": 4254,
      "😧": 4255,
      "😨": 4256,
      "😩": 4257,
      "😪": 4258,
      "😬": 4259,
      "😭": 4260,
      "😮": 4261,
      "😱": 4262,
      "😳": 4263,
      "😴": 4264,
      "🙁": 4265,
      "🙂": 4266,
      "🙃": 4267,
      "🙄": 4268,
      "🙅": 4269,
      "🙆": 4270,
      "🙋": 4271,
      "🙌": 4272,
      "🙏": 4273,
      "🚀": 4274,
      "🚨": 4275,
      "🚴": 4276,
      "🚶": 4277,
      "🤓": 4278,
      "🤔": 4279,
      "🤗": 4280,
      "🤙": 4281,
      "🤷": 4282,
      "🤸": 4283,
      "🤾": 4284,
      "🥂": 4285,
      "🥰": 4286,
      "🦄": 4287,
      "\u0000\u0000": 4288,
      "\u0000\u0000\u0000\u0000": 4289,
      "\u0000\u0000\u0000\u0000\u0000\u0000\u0000\u0000": 4290,
      "th": 4291,
      "\u0000\u0000\u0000\u0000\u0000\u0000\u0000\u0000\u0000\u0000\u0000\u0000\u0000\u0000\u0000\u0000": 4292,
      "in": 4293,
      "er": 4294,
      "an": 4295,
      "the": 4296,
      "on": 4297,
      "00": 4298,
      "re": 4299,
      "at": 4300,
      "en": 4301,
      "\u0000\u0000\u0000\u0000\u0000\u0000\u0000\u0000\u0000\u0000\u0000\u0000\u0000\u0000\u0000\u0000\u0000\u0000\u0000\u0000\u0000\u0000\u0000\u0000\u0000\u0000\u0000\u0000\u0000\u0000\u0000\u0000": 4302,
      "or": 4303,
      "st": 4304,
      "al": 4305,
      "ed": 4306,
      "ou": 4307,
      "ing": 4308,
      "to": 4309,
      "ar": 4310,
      "is": 4311,
      "it": 4312,
      "es": 4313,
      "of": 4314,
      "and": 4315,
      "as": 4316,
      "ic": 4317,
      "le": 4318,
      "ion": 4319,
      "om": 4320,
      "0000": 4321,
      "he": 4322,
      "\u0000\u0000\u0000\u0000\u0000\u0000\u0000\u0000\u0000\u0000\u0000\u0000\u0000\u0000\u0000\u0000\u0000\u0000\u0000\u0000\u0000\u0000\u0000\u0000\u0000\u0000\u0000\u0000\u0000\u0000\u0000\u0000\u0000\u0000\u0000\u0000\u0000\u0000\u0000\u0000\u0000\u0000\u0000\u0000\u0000\u0000\u0000\u0000\u0000\u0000\u0000\u0000\u0000\u0000\u0000\u0000\u0000\u0000\u0000\u0000\u0000\u0000\u0000\u0000": 4323,
      "ent": 4324,
      "se": 4325,
      "il": 4326,
      "ac": 4327,
      "be": 4328,
      "ve": 4329,
      "ly": 4330,
      "id": 4331,
      "ro": 4332,
      "ad": 4333,
      "for": 4334,
      "am": 4335,
      "that": 4336,
      "ow": 4337,
      "ch": 4338,
      "ay": 4339,
      "wh": 4340,
      "im": 4341,
      "ig": 4342,
      "ol": 4343,
      "ver": 4344,
      "ot": 4345,
      "ut": 4346,
      "un": 4347,
      "de": 4348,
      "ge": 4349,
      "ith": 4350,
      "ter": 4351,
      "ce": 4352,
      "ur": 4353,
      "ir": 4354,
      "ation": 4355,
      "ab": 4356,
      "are": 4357,
      "ct": 4358,
      "000": 4359,
      "The": 4360,
      "con": 4361,
      "with": 4362,
      "us": 4363,
      "ne": 4364,
      "pe": 4365,
      "li": 4366,
      "ers": 4367,
      "ke": 4368,
      "ere": 4369,
      "0000000": 4370,
      "mo": 4371,
      "we": 4372,
      "com": 4373,
      "ha": 4374,
      "lo": 4375,
      "ld": 4376,
      "ill": 4377,
      "su": 4378,
      "you": 4379,
      "was": 4380,
      "te": 4381,
      "out": 4382,
      "all": 4383,
      "tr": 4384,
      "ate": 4385,
      "op": 4386,
      "pro": 4387,
      "res": 4388,
      "ul": 4389,
      "fr": 4390,
      "ment": 4391,
      "pl": 4392,
      "ap": 4393,
      "ag": 4394,
      "ex": 4395,
      "igh": 4396,
      "ust": 4397,
      "ain": 4398,
      "oun": 4399,
      "ist": 4400,
      "one": 4401,
      "if": 4402,
      "sh": 4403,
      "\u0000\u0000\u0000\u0000\u0000\u0000\u0000\u0000\u0000\u0000\u0000\u0000\u0000\u0000\u0000\u0000\u0000\u0000\u0000\u0000\u0000\u0000\u0000\u0000\u0000\u0000\u0000\u0000\u0000\u0000\u0000\u0000\u0000\u0000\u0000\u0000\u0000\u0000\u0000\u0000\u0000\u0000\u0000\u0000\u0000\u0000\u0000\u0000\u0000\u0000\u0000\u0000\u0000\u0000\u0000\u0000\u0000\u0000\u0000\u0000\u0000\u0000\u0000\u0000\u0000\u0000\u0000\u0000\u0000\u0000\u0000\u0000\u0000\u0000\u0000\u0000\u0000\u0000\u0000\u0000\u0000\u0000\u0000\u0000\u0000\u0000\u0000\u0000\u0000\u0000\u0000\u0000\u0000\u0000\u0000\u0000\u0000\u0000\u0000\u0000\u0000\u0000\u0000\u0000\u0000\u0000\u0000\u0000\u0000\u0000\u0000\u0000\u0000\u0000\u0000\u0000\u0000\u0000\u0000\u0000\u0000\u0000\u0000\u0000\u0000\u0000\u0000\u0000": 4404,
      "ts": 4405,
      "so": 4406,
      "by": 4407,
      "our": 4408,
      "his": 4409,
      "not": 4410,
      "me": 4411,
      "have": 4412,
      "ess": 4413,
      "fe": 4414,
      "ll": 4415,
      "po": 4416,
      "ity": 4417,
      "ould": 4418,
      "ther": 4419,
      "art": 4420,
      "from": 4421,
      "ive": 4422,
      "this": 4423,
      "sa": 4424,
      "um": 4425,
      "qu": 4426,
      "ies": 4427,
      "ant": 4428,
      "per": 4429,
      "go": 4430,
      "01": 4431,
      "wor": 4432,
      "ri": 4433,
      "ast": 4434,
      "ome": 4435,
      "has": 4436,
      "end": 4437,
      "act": 4438,
      "ack": 4439,
      "do": 4440,
      "up": 4441,
      "od": 4442,
      "ally": 4443,
      "but": 4444,
      "ie": 4445,
      "ight": 4446,
      "em": 4447,
      "ear": 4448,
      "por": 4449,
      "In": 4450,
      "gh": 4451,
      "ard": 4452,
      "any": 4453,
      "co": 4454,
      "cl": 4455,
      "ak": 4456,
      "can": 4457,
      "they": 4458,
      "will": 4459,
      "au": 4460,
      "said": 4461,
      "ind": 4462,
      "el": 4463,
      "pr": 4464,
      "iv": 4465,
      "ans": 4466,
      "who": 4467,
      "gr": 4468,
      "ial": 4469,
      "ough": 4470,
      "tim": 4471,
      "ame": 4472,
      "ich": 4473,
      "Th": 4474,
      "their": 4475,
      "age": 4476,
      "af": 4477,
      "ide": 4478,
      "der": 4479,
      "more": 4480,
      "ok": 4481,
      "ev": 4482,
      "now": 4483,
      "ice": 4484,
      "et": 4485,
      "ous": 4486,
      "ound": 4487,
      "ong": 4488,
      "some": 4489,
      "ine": 4490,
      "est": 4491,
      "bl": 4492,
      "ure": 4493,
      "ions": 4494,
      "no": 4495,
      "ud": 4496,
      "about": 4497,
      "port": 4498,
      "off": 4499,
      "bo": 4500,
      "had": 4501,
      "ber": 4502,
      "ated": 4503,
      "its": 4504,
      "year": 4505,
      "day": 4506,
      "ire": 4507,
      "cre": 4508,
      "which": 4509,
      "ore": 4510,
      "It": 4511,
      "were": 4512,
      "ia": 4513,
      "ep": 4514,
      "way": 4515,
      "thing": 4516,
      "able": 4517,
      "would": 4518,
      "ence": 4519,
      "very": 4520,
      "cr": 4521,
      "ake": 4522,
      "like": 4523,
      "ck": 4524,
      "man": 4525,
      "other": 4526,
      "ass": 4527,
      "own": 4528,
      "iz": 4529,
      "ip": 4530,
      "work": 4531,
      "ach": 4532,
      "been": 4533,
      "xt": 4534,
      "An": 4535,
      "ty": 4536,
      "pre": 4537,
      "av": 4538,
      "ary": 4539,
      "ace": 4540,
      "over": 4541,
      "ign": 4542,
      "201": 4543,
      "her": 4544,
      "ite": 4545,
      "new": 4546,
      "Wh": 4547,
      "ra": 4548,
      "ish": 4549,
      "get": 4550,
      "comp": 4551,
      "mer": 4552,
      "ue": 4553,
      "pres": 4554,
      "ople": 4555,
      "ile": 4556,
      "int": 4557,
      "than": 4558,
      "sp": 4559,
      "time": 4560,
      "my": 4561,
      "St": 4562,
      "there": 4563,
      "part": 4564,
      "pos": 4565,
      "ical": 4566,
      "cent": 4567,
      "dis": 4568,
      "ail": 4569,
      "ser": 4570,
      "ree": 4571,
      "also": 4572,
      "44": 4573,
      "19": 4574,
      "what": 4575,
      "str": 4576,
      "just": 4577,
      "them": 4578,
      "ef": 4579,
      "people": 4580,
      "We": 4581,
      "Ch": 4582,
      "when": 4583,
      "your": 4584,
      "cor": 4585,
      "He": 4586,
      "fir": 4587,
      "play": 4588,
      "say": 4589,
      "ble": 4590,
      "cont": 4591,
      "br": 4592,
      "ens": 4593,
      "ations": 4594,
      "\u0000\u0000\u0000\u0000\u0000\u0000\u0000\u0000\u0000\u0000\u0000\u0000\u0000\u0000\u0000\u0000\u0000\u0000\u0000\u0000\u0000\u0000\u0000\u0000": 4595,
      "\u0000\u0000\u0000\u0000\u0000\u0000\u0000\u0000\u0000\u0000\u0000\u0000\u0000\u0000\u0000\u0000\u0000\u0000\u0000\u0000\u0000\u0000\u0000\u0000\u0000\u0000\u0000\u0000\u0000\u0000\u0000\u0000\u0000\u0000\u0000\u0000\u0000\u0000\u0000\u0000\u0000\u0000\u0000\u0000\u0000\u0000\u0000\u0000\u0000\u0000\u0000\u0000\u0000\u0000\u0000\u0000\u0000\u0000\u0000\u0000\u0000\u0000\u0000\u0000\u0000\u0000\u0000\u0000\u0000\u0000\u0000\u0000\u0000\u0000\u0000\u0000\u0000\u0000\u0000\u0000\u0000\u0000\u0000\u0000\u0000\u0000\u0000\u0000\u0000\u0000\u0000\u0000\u0000\u0000\u0000\u0000": 4596,
      "inter": 4597,
      "pol": 4598,
      "tw": 4599,
      "ance": 4600,
      "fer": 4601,
      "ase": 4602,
      "ren": 4603,
      "low": 4604,
      "du": 4605,
      "ction": 4606,
      "pt": 4607,
      ".”": 4608,
      "into": 4609,
      "form": 4610,
      "ho": 4611,
      "\u0000\u0000\u0000\u0000\u0000\u0000\u0000\u0000\u0000\u0000\u0000\u0000\u0000\u0000\u0000\u0000\u0000\u0000\u0000\u0000\u0000\u0000\u0000\u0000\u0000\u0000\u0000\u0000\u0000\u0000\u0000\u0000\u0000\u0000\u0000\u0000\u0000\u0000\u0000\u0000\u0000\u0000\u0000\u0000\u0000\u0000\u0000\u0000\u0000\u0000\u0000\u0000\u0000\u0000\u0000\u0000\u0000\u0000\u0000\u0000\u0000\u0000\u0000\u0000\u0000\u0000\u0000\u0000\u0000\u0000\u0000\u0000\u0000\u0000\u0000\u0000\u0000\u0000\u0000\u0000\u0000\u0000\u0000\u0000\u0000\u0000\u0000\u0000\u0000\u0000\u0000\u0000\u0000\u0000\u0000\u0000\u0000\u0000\u0000\u0000\u0000\u0000\u0000\u0000\u0000\u0000\u0000\u0000\u0000\u0000\u0000\u0000\u0000\u0000\u0000\u0000\u0000\u0000\u0000\u0000\u0000\u0000\u0000\u0000\u0000\u0000\u0000\u0000\u0000\u0000\u0000\u0000\u0000\u0000\u0000\u0000\u0000\u0000\u0000\u0000\u0000\u0000\u0000\u0000\u0000\u0000\u0000\u0000\u0000\u0000\u0000\u0000\u0000\u0000\u0000\u0000\u0000\u0000\u0000\u0000": 4612,
      "la": 4613,
      "ink": 4614,
      "ick": 4615,
      "ian": 4616,
      "old": 4617,
      "mon": 4618,
      "most": 4619,
      "ident": 4620,
      "spe": 4621,
      "ory": 4622,
      "coun": 4623,
      "how": 4624,
      "sc": 4625,
      "ang": 4626,
      "cau": 4627,
      "ob": 4628,
      "ition": 4629,
      "back": 4630,
      "ates": 4631,
      "ade": 4632,
      "know": 4633,
      "ors": 4634,
      "att": 4635,
      "ful": 4636,
      "amp": 4637,
      "\u0000\u0000\u0000\u0000\u0000\u0000\u0000\u0000\u0000\u0000\u0000\u0000\u0000\u0000\u0000\u0000\u0000\u0000\u0000\u0000\u0000\u0000\u0000\u0000\u0000\u0000\u0000\u0000\u0000\u0000\u0000\u0000\u0000\u0000\u0000\u0000\u0000\u0000\u0000\u0000\u0000\u0000\u0000\u0000\u0000\u0000\u0000\u0000\u0000\u0000\u0000\u0000\u0000\u0000\u0000\u0000\u0000\u0000\u0000\u0000\u0000\u0000\u0000\u0000\u0000\u0000\u0000\u0000\u0000\u0000\u0000\u0000\u0000\u0000\u0000\u0000\u0000\u0000\u0000\u0000\u0000\u0000\u0000\u0000\u0000\u0000\u0000\u0000\u0000\u0000\u0000\u0000\u0000\u0000\u0000\u0000\u0000\u0000\u0000\u0000\u0000\u0000\u0000\u0000\u0000\u0000\u0000\u0000\u0000\u0000\u0000\u0000\u0000\u0000\u0000\u0000\u0000\u0000\u0000\u0000\u0000\u0000\u0000\u0000\u0000\u0000\u0000\u0000\u0000\u0000\u0000\u0000\u0000\u0000\u0000\u0000\u0000\u0000\u0000\u0000\u0000\u0000\u0000\u0000\u0000\u0000\u0000\u0000\u0000\u0000\u0000\u0000\u0000\u0000\u0000\u0000\u0000\u0000\u0000\u0000\u0000\u0000\u0000\u0000\u0000\u0000\u0000\u0000": 4638,
      "she": 4639,
      "cause": 4640,
      "ubl": 4641,
      "But": 4642,
      "ious": 4643,
      ",”": 4644,
      "\u0000\u0000\u0000\u0000\u0000\u0000\u0000\u0000\u0000\u0000\u0000\u0000\u0000\u0000\u0000\u0000\u0000\u0000\u0000\u0000\u0000\u0000\u0000\u0000\u0000\u0000\u0000\u0000\u0000\u0000\u0000\u0000\u0000\u0000\u0000\u0000\u0000\u0000\u0000\u0000\u0000\u0000\u0000\u0000\u0000\u0000\u0000\u0000\u0000\u0000\u0000\u0000\u0000\u0000\u0000\u0000\u0000\u0000\u0000\u0000\u0000\u0000\u0000\u0000\u0000\u0000\u0000\u0000\u0000\u0000\u0000\u0000\u0000\u0000\u0000\u0000\u0000\u0000\u0000\u0000\u0000\u0000\u0000\u0000\u0000\u0000\u0000\u0000\u0000\u0000\u0000\u0000\u0000\u0000\u0000\u0000\u0000\u0000\u0000\u0000": 4645,
      "og": 4646,
      "This": 4647,
      "after": 4648,
      "cess": 4649,
      "ose": 4650,
      "ting": 4651,
      "first": 4652,
      "\u0000\u0000\u0000\u0000\u0000\u0000\u0000\u0000\u0000\u0000\u0000\u0000\u0000\u0000\u0000\u0000\u0000\u0000\u0000\u0000\u0000\u0000\u0000\u0000\u0000\u0000\u0000\u0000\u0000\u0000\u0000\u0000\u0000\u0000\u0000\u0000\u0000\u0000\u0000\u0000\u0000\u0000\u0000\u0000\u0000\u0000\u0000\u0000\u0000\u0000\u0000\u0000\u0000\u0000\u0000\u0000": 4653,
      "644": 4654,
      "him": 4655,
      "min": 4656,
      "cur": 4657,
      "\u0000\u0000\u0000\u0000\u0000\u0000\u0000\u0000\u0000\u0000\u0000\u0000\u0000\u0000\u0000\u0000\u0000\u0000\u0000\u0000\u0000\u0000\u0000\u0000\u0000\u0000\u0000\u0000\u0000\u0000\u0000\u0000\u0000\u0000\u0000\u0000\u0000\u0000\u0000\u0000\u0000\u0000\u0000\u0000\u0000\u0000\u0000\u0000\u0000\u0000\u0000\u0000\u0000\u0000\u0000\u0000\u0000\u0000\u0000\u0000\u0000\u0000\u0000\u0000\u0000": 4658,
      "could": 4659,
      "txt": 4660,
      "00000000000": 4661,
      "ustar": 4662,
      "0000644": 4663,
      "only": 4664,
      "vers": 4665,
      "sel": 4666,
      "10": 4667,
      "ild": 4668,
      "two": 4669,
      "enc": 4670,
      "mar": 4671,
      "fore": 4672,
      "pp": 4673,
      "ning": 4674,
      "row": 4675,
      "And": 4676,
      "Un": 4677,
      "ry": 4678,
      "bet": 4679,
      "sy": 4680,
      "ater": 4681,
      "don": 4682,
      "comm": 4683,
      "med": 4684,
      "oc": 4685,
      "des": 4686,
      ".\"": 4687,
      "ph": 4688,
      "under": 4689,
      "where": 4690,
      "Ne": 4691,
      "see": 4692,
      "did": 4693,
      "fin": 4694,
      "use": 4695,
      "even": 4696,
      "again": 4697,
      "bu": 4698,
      "gu": 4699,
      "add": 4700,
      "ict": 4701,
      "read": 4702,
      "because": 4703,
      "ual": 4704,
      "Re": 4705,
      "ise": 4706,
      "reg": 4707,
      "ason": 4708,
      "je": 4709,
      "come": 4710,
      "ating": 4711,
      "si": 4712,
      "Tr": 4713,
      "ved": 4714,
      "need": 4715,
      "--": 4716,
      "years": 4717,
      "20": 4718,
      "tur": 4719,
      "ving": 4720,
      "ublic": 4721,
      "50": 4722,
      "land": 4723,
      "As": 4724,
      "rough": 4725,
      "try": 4726,
      "call": 4727,
      "reat": 4728,
      "many": 4729,
      "down": 4730,
      "ents": 4731,
      "every": 4732,
      "ress": 4733,
      "ments": 4734,
      "ks": 4735,
      "used": 4736,
      "anc": 4737,
      "look": 4738,
      "these": 4739,
      "make": 4740,
      "col": 4741,
      ",\"": 4742,
      "vie": 4743,
      "iss": 4744,
      "leg": 4745,
      "then": 4746,
      "cord": 4747,
      "incl": 4748,
      "think": 4749,
      "uch": 4750,
      "want": 4751,
      "ins": 4752,
      "ener": 4753,
      "hel": 4754,
      "being": 4755,
      "De": 4756,
      "dr": 4757,
      "ational": 4758,
      "dif": 4759,
      "may": 4760,
      "fl": 4761,
      "air": 4762,
      "ult": 4763,
      "ever": 4764,
      "\u0000\u0000\u0000\u0000\u0000\u0000\u0000\u0000\u0000\u0000\u0000\u0000\u0000\u0000\u0000\u0000\u0000\u0000\u0000\u0000\u0000\u0000\u0000\u0000\u0000\u0000\u0000\u0000\u0000\u0000\u0000\u0000\u0000\u0000\u0000\u0000\u0000\u0000\u0000\u0000\u0000\u0000\u0000\u0000\u0000\u0000\u0000\u0000\u0000\u0000\u0000\u0000\u0000\u0000\u0000\u0000\u0000\u0000\u0000\u0000\u0000\u0000\u0000\u0000\u0000\u0000\u0000\u0000\u0000\u0000\u0000\u0000\u0000\u0000\u0000\u0000\u0000\u0000\u0000\u0000\u0000\u0000\u0000\u0000\u0000\u0000\u0000\u0000\u0000\u0000\u0000\u0000\u0000\u0000\u0000\u0000\u0000\u0000\u0000\u0000\u0000\u0000\u0000\u0000\u0000\u0000\u0000\u0000\u0000\u0000\u0000\u0000\u0000\u0000\u0000\u0000\u0000\u0000\u0000\u0000\u0000\u0000\u0000\u0000\u0000\u0000\u0000\u0000\u0000\u0000\u0000\u0000\u0000\u0000\u0000\u0000\u0000\u0000\u0000\u0000\u0000\u0000\u0000\u0000\u0000\u0000\u0000\u0000\u0000\u0000\u0000\u0000\u0000\u0000\u0000\u0000\u0000\u0000\u0000\u0000\u0000\u0000\u0000\u0000\u0000\u0000\u0000\u0000\u0000\u0000\u0000\u0000\u0000\u0000\u0000\u0000\u0000\u0000\u0000\u0000\u0000\u0000\u0000\u0000\u0000\u0000\u0000\u0000\u0000\u0000\u0000\u0000\u0000\u0000\u0000\u0000\u0000\u0000\u0000\u0000\u0000\u0000\u0000\u0000\u0000\u0000\u0000\u0000\u0000\u0000\u0000\u0000\u0000\u0000\u0000\u0000\u0000\u0000\u0000\u0000\u0000\u0000\u0000\u0000\u0000\u0000\u0000\u0000\u0000\u0000\u0000\u0000\u0000\u0000\u0000\u0000\u0000\u0000\u0000\u0000\u0000\u0000\u0000\u0000\u0000\u0000\u0000\u0000\u0000\u0000\u0000\u0000\u0000\u0000\u0000\u0000": 4765,
      "tal": 4766,
      "os": 4767,
      "ject": 4768,
      "itt": 4769,
      "well": 4770,
      "ath": 4771,
      "red": 4772,
      "less": 4773,
      "lect": 4774,
      "cer": 4775,
      "though": 4776,
      "state": 4777,
      "long": 4778,
      "Amer": 4779,
      "ci": 4780,
      "oup": 4781,
      "last": 4782,
      "Americ": 4783,
      "200": 4784,
      "rel": 4785,
      "..": 4786,
      "arch": 4787,
      "through": 4788,
      "For": 4789,
      "pers": 4790,
      "ied": 4791,
      "ash": 4792,
      "ative": 4793,
      "set": 4794,
      "ited": 4795,
      "12": 4796,
      "ased": 4797,
      "aking": 4798,
      "should": 4799,
      "show": 4800,
      "sup": 4801,
      "right": 4802,
      "those": 4803,
      "ump": 4804,
      "tain": 4805,
      "self": 4806,
      "ities": 4807,
      "ran": 4808,
      "You": 4809,
      "New": 4810,
      "high": 4811,
      "ug": 4812,
      "cho": 4813,
      "ven": 4814,
      "much": 4815,
      "lear": 4816,
      "If": 4817,
      "pect": 4818,
      "let": 4819,
      "wr": 4820,
      "15": 4821,
      ").": 4822,
      "car": 4823,
      "gover": 4824,
      "imp": 4825,
      "atch": 4826,
      "par": 4827,
      "going": 4828,
      "does": 4829,
      "ward": 4830,
      "les": 4831,
      "govern": 4832,
      "vel": 4833,
      "ific": 4834,
      "uring": 4835,
      "vis": 4836,
      "fun": 4837,
      "stand": 4838,
      "fect": 4839,
      "ics": 4840,
      "made": 4841,
      "30": 4842,
      "mem": 4843,
      "ves": 4844,
      "sur": 4845,
      "015": 4846,
      "ince": 4847,
      "before": 4848,
      "ys": 4849,
      "wee": 4850,
      "while": 4851,
      "such": 4852,
      "team": 4853,
      "led": 4854,
      "ss": 4855,
      "world": 4856,
      "put": 4857,
      "lar": 4858,
      "11": 4859,
      "view": 4860,
      "stem": 4861,
      "cond": 4862,
      "char": 4863,
      "ned": 4864,
      "ced": 4865,
      "pon": 4866,
      "ily": 4867,
      "main": 4868,
      "dec": 4869,
      "ort": 4870,
      "Con": 4871,
      "law": 4872,
      "ms": 4873,
      "They": 4874,
      "gan": 4875,
      "ma": 4876,
      "Al": 4877,
      "lead": 4878,
      "ings": 4879,
      "game": 4880,
      "good": 4881,
      "als": 4882,
      "sub": 4883,
      "Se": 4884,
      "stud": 4885,
      "says": 4886,
      "cial": 4887,
      "start": 4888,
      "ility": 4889,
      "ner": 4890,
      "Ar": 4891,
      "ular": 4892,
      "ters": 4893,
      "test": 4894,
      "ton": 4895,
      "ually": 4896,
      "against": 4897,
      "line": 4898,
      "produ": 4899,
      "includ": 4900,
      "here": 4901,
      "),": 4902,
      "There": 4903,
      "still": 4904,
      "help": 4905,
      "run": 4906,
      "ff": 4907,
      "ower": 4908,
      "illion": 4909,
      "take": 4910,
      "16": 4911,
      "ists": 4912,
      "real": 4913,
      "head": 4914,
      "olog": 4915,
      "18": 4916,
      "ween": 4917,
      "13": 4918,
      "offic": 4919,
      "clo": 4920,
      "app": 4921,
      "io": 4922,
      "val": 4923,
      "point": 4924,
      "That": 4925,
      "cut": 4926,
      "ood": 4927,
      "17": 4928,
      "same": 4929,
      "government": 4930,
      "Com": 4931,
      "ism": 4932,
      "sign": 4933,
      "quest": 4934,
      "chan": 4935,
      "differ": 4936,
      "num": 4937,
      "tem": 4938,
      "system": 4939,
      "ub": 4940,
      "cour": 4941,
      "king": 4942,
      "serv": 4943,
      "war": 4944,
      "che": 4945,
      "between": 4946,
      "hand": 4947,
      "cons": 4948,
      "fact": 4949,
      "Is": 4950,
      "Le": 4951,
      "No": 4952,
      "aw": 4953,
      "velo": 4954,
      "eng": 4955,
      "cap": 4956,
      "So": 4957,
      "ollow": 4958,
      "trans": 4959,
      "three": 4960,
      "person": 4961,
      "14": 4962,
      "On": 4963,
      "book": 4964,
      "around": 4965,
      "ames": 4966,
      "public": 4967,
      "really": 4968,
      "report": 4969,
      "plan": 4970,
      "ures": 4971,
      "25": 4972,
      "son": 4973,
      "wom": 4974,
      "fam": 4975,
      "life": 4976,
      "side": 4977,
      "group": 4978,
      "Fr": 4979,
      "24": 4980,
      "sm": 4981,
      "inst": 4982,
      "Trump": 4983,
      "prov": 4984,
      "uss": 4985,
      "plo": 4986,
      "found": 4987,
      "ten": 4988,
      "vest": 4989,
      "ax": 4990,
      "Mar": 4991,
      "sure": 4992,
      "def": 4993,
      "ked": 4994,
      "Br": 4995,
      "ways": 4996,
      "got": 4997,
      "Jo": 4998,
      "press": 4999,
      "happ": 5000,
      "ouse": 5001,
      "fil": 5002,
      "ket": 5003,
      "peri": 5004,
      "sul": 5005,
      "lot": 5006,
      "ave": 5007,
      "power": 5008,
      "pri": 5009,
      "support": 5010,
      "month": 5011,
      "US": 5012,
      "Be": 5013,
      "ense": 5014,
      "big": 5015,
      "find": 5016,
      "irect": 5017,
      "place": 5018,
      "ann": 5019,
      "ale": 5020,
      "gest": 5021,
      "issu": 5022,
      "both": 5023,
      "miss": 5024,
      "polit": 5025,
      ".[": 5026,
      "vol": 5027,
      "ost": 5028,
      "develo": 5029,
      "di": 5030,
      "vi": 5031,
      "At": 5032,
      "47": 5033,
      "ages": 5034,
      "ices": 5035,
      "appe": 5036,
      "respon": 5037,
      "cept": 5038,
      "beli": 5039,
      "cal": 5040,
      "week": 5041,
      "aren": 5042,
      "top": 5043,
      "ng": 5044,
      "gener": 5045,
      "too": 5046,
      "ft": 5047,
      "000000": 5048,
      "tell": 5049,
      "alth": 5050,
      "net": 5051,
      "vot": 5052,
      "during": 5053,
      "told": 5054,
      "ds": 5055,
      "ces": 5056,
      "list": 5057,
      "season": 5058,
      "How": 5059,
      "ship": 5060,
      "Cl": 5061,
      "follow": 5062,
      "27": 5063,
      "ically": 5064,
      "rest": 5065,
      "bers": 5066,
      "ared": 5067,
      "cording": 5068,
      "az": 5069,
      "using": 5070,
      "incre": 5071,
      "came": 5072,
      "since": 5073,
      "few": 5074,
      "bus": 5075,
      "ines": 5076,
      "contin": 5077,
      "akes": 5078,
      "stru": 5079,
      "23": 5080,
      "ext": 5081,
      "commun": 5082,
      "ban": 5083,
      "vent": 5084,
      "far": 5085,
      "26": 5086,
      "Ad": 5087,
      "ider": 5088,
      "national": 5089,
      "order": 5090,
      "something": 5091,
      "allow": 5092,
      "turn": 5093,
      "bre": 5094,
      "pass": 5095,
      "open": 5096,
      "blo": 5097,
      "ata": 5098,
      "ues": 5099,
      "clear": 5100,
      "aim": 5101,
      "child": 5102,
      "ris": 5103,
      "giv": 5104,
      "another": 5105,
      "rele": 5106,
      "Sh": 5107,
      "ution": 5108,
      "ah": 5109,
      "invest": 5110,
      "home": 5111,
      "unt": 5112,
      "When": 5113,
      "oot": 5114,
      "ready": 5115,
      "bit": 5116,
      "things": 5117,
      "each": 5118,
      "ody": 5119,
      "ized": 5120,
      "kill": 5121,
      "sol": 5122,
      "ross": 5123,
      "post": 5124,
      "iness": 5125,
      "jo": 5126,
      "camp": 5127,
      "chool": 5128,
      "different": 5129,
      "Pro": 5130,
      "might": 5131,
      "gram": 5132,
      "gy": 5133,
      "care": 5134,
      "never": 5135,
      "60": 5136,
      "40": 5137,
      "ca": 5138,
      "ush": 5139,
      "second": 5140,
      "search": 5141,
      "ted": 5142,
      "cover": 5143,
      "ime": 5144,
      "contro": 5145,
      "What": 5146,
      "curren": 5147,
      "times": 5148,
      "move": 5149,
      "called": 5150,
      "next": 5151,
      "atter": 5152,
      "possi": 5153,
      "ient": 5154,
      "ier": 5155,
      "ls": 5156,
      "pay": 5157,
      "best": 5158,
      "contr": 5159,
      "hum": 5160,
      "ize": 5161,
      "ars": 5162,
      "change": 5163,
      "To": 5164,
      "direct": 5165,
      "develop": 5166,
      "ger": 5167,
      "feel": 5168,
      "ights": 5169,
      "seem": 5170,
      "ature": 5171,
      "million": 5172,
      "including": 5173,
      "requ": 5174,
      "men": 5175,
      "ittle": 5176,
      "sing": 5177,
      "oper": 5178,
      "build": 5179,
      "resident": 5180,
      "dist": 5181,
      "ness": 5182,
      "ivers": 5183,
      "percent": 5184,
      "interest": 5185,
      "inform": 5186,
      "hard": 5187,
      "lim": 5188,
      "pop": 5189,
      "light": 5190,
      "ield": 5191,
      "oth": 5192,
      "ele": 5193,
      "appro": 5194,
      "tech": 5195,
      "35": 5196,
      "American": 5197,
      "present": 5198,
      "four": 5199,
      "ital": 5200,
      "won": 5201,
      "ps": 5202,
      "great": 5203,
      "ired": 5204,
      "conom": 5205,
      "country": 5206,
      "She": 5207,
      "ix": 5208,
      "without": 5209,
      "number": 5210,
      "proble": 5211,
      "import": 5212,
      "resul": 5213,
      "ling": 5214,
      "sum": 5215,
      "ral": 5216,
      "case": 5217,
      "bro": 5218,
      "ball": 5219,
      "oney": 5220,
      "ately": 5221,
      "recent": 5222,
      "attack": 5223,
      "keep": 5224,
      "level": 5225,
      "ished": 5226,
      "ama": 5227,
      "tra": 5228,
      "Ro": 5229,
      "ably": 5230,
      "sit": 5231,
      "better": 5232,
      "organ": 5233,
      "ons": 5234,
      "little": 5235,
      "uro": 5236,
      "mil": 5237,
      "partic": 5238,
      "class": 5239,
      "win": 5240,
      "nor": 5241,
      "ants": 5242,
      "hoto": 5243,
      "29": 5244,
      "iting": 5245,
      "57": 5246,
      "ency": 5247,
      "uck": 5248,
      "All": 5249,
      "left": 5250,
      "prof": 5251,
      "Af": 5252,
      "cri": 5253,
      "free": 5254,
      "prom": 5255,
      "Rep": 5256,
      "28": 5257,
      "effect": 5258,
      "wit": 5259,
      "ese": 5260,
      "den": 5261,
      "company": 5262,
      "hist": 5263,
      "Ob": 5264,
      "jor": 5265,
      "police": 5266,
      "data": 5267,
      "program": 5268,
      "didn": 5269,
      "ref": 5270,
      "37": 5271,
      "ends": 5272,
      "body": 5273,
      "fri": 5274,
      "plic": 5275,
      "46": 5276,
      "ark": 5277,
      "grow": 5278,
      "dep": 5279,
      "ports": 5280,
      "thor": 5281,
      "fac": 5282,
      "vious": 5283,
      "claim": 5284,
      "ather": 5285,
      "Co": 5286,
      "ina": 5287,
      "econom": 5288,
      "ploy": 5289,
      "based": 5290,
      "key": 5291,
      "plain": 5292,
      "near": 5293,
      "school": 5294,
      "spec": 5295,
      "chang": 5296,
      "ont": 5297,
      "president": 5298,
      "ional": 5299,
      "inal": 5300,
      "United": 5301,
      "eas": 5302,
      "90": 5303,
      "ability": 5304,
      "atic": 5305,
      "action": 5306,
      "comple": 5307,
      "current": 5308,
      "pur": 5309,
      "80": 5310,
      "women": 5311,
      "ord": 5312,
      "expect": 5313,
      "reason": 5314,
      "coming": 5315,
      "away": 5316,
      "One": 5317,
      "ended": 5318,
      "hn": 5319,
      "business": 5320,
      "36": 5321,
      "gre": 5322,
      "process": 5323,
      "minist": 5324,
      "ator": 5325,
      "ib": 5326,
      "Pr": 5327,
      "design": 5328,
      "story": 5329,
      "hold": 5330,
      "already": 5331,
      "later": 5332,
      "techn": 5333,
      "official": 5334,
      "money": 5335,
      "ided": 5336,
      "45": 5337,
      "ern": 5338,
      "ending": 5339,
      "Nor": 5340,
      "job": 5341,
      "vir": 5342,
      "always": 5343,
      "city": 5344,
      "rece": 5345,
      "fic": 5346,
      "ones": 5347,
      "ude": 5348,
      "making": 5349,
      "why": 5350,
      "information": 5351,
      "face": 5352,
      "edit": 5353,
      "aph": 5354,
      "Can": 5355,
      "22": 5356,
      "mocr": 5357,
      "small": 5358,
      "whe": 5359,
      "Col": 5360,
      "comes": 5361,
      "simp": 5362,
      "experi": 5363,
      "ats": 5364,
      "sever": 5365,
      "project": 5366,
      "ives": 5367,
      "ology": 5368,
      "cu": 5369,
      "kind": 5370,
      "health": 5371,
      "ik": 5372,
      "Go": 5373,
      "major": 5374,
      "elect": 5375,
      "hal": 5376,
      "ork": 5377,
      "adv": 5378,
      "ised": 5379,
      "cy": 5380,
      "Gr": 5381,
      "bur": 5382,
      "ration": 5383,
      "99": 5384,
      "ged": 5385,
      "aign": 5386,
      "night": 5387,
      "bed": 5388,
      "Mr": 5389,
      "name": 5390,
      "ute": 5391,
      "ago": 5392,
      "past": 5393,
      "mor": 5394,
      "enter": 5395,
      "John": 5396,
      "must": 5397,
      "fort": 5398,
      "important": 5399,
      "tax": 5400,
      "suc": 5401,
      "consider": 5402,
      "IS": 5403,
      "und": 5404,
      "bor": 5405,
      "var": 5406,
      "days": 5407,
      "acy": 5408,
      "bal": 5409,
      "curity": 5410,
      "Pe": 5411,
      "qual": 5412,
      "position": 5413,
      "known": 5414,
      "happen": 5415,
      "unch": 5416,
      "working": 5417,
      "Car": 5418,
      "sex": 5419,
      "cost": 5420,
      "site": 5421,
      "large": 5422,
      "atur": 5423,
      "doesn": 5424,
      "ric": 5425,
      "ards": 5426,
      "human": 5427,
      "late": 5428,
      "lay": 5429,
      "family": 5430,
      "92": 5431,
      "ret": 5432,
      "Bl": 5433,
      "ste": 5434,
      "least": 5435,
      "mean": 5436,
      "eral": 5437,
      "record": 5438,
      "33": 5439,
      "Mo": 5440,
      "outh": 5441,
      "news": 5442,
      "bas": 5443,
      "Or": 5444,
      "56": 5445,
      "ample": 5446,
      "May": 5447,
      "With": 5448,
      "que": 5449,
      "political": 5450,
      "deal": 5451,
      "campaign": 5452,
      "ides": 5453,
      "gin": 5454,
      "Li": 5455,
      "remain": 5456,
      "vide": 5457,
      "cas": 5458,
      "possible": 5459,
      "President": 5460,
      "polic": 5461,
      "ene": 5462,
      "water": 5463,
      "enough": 5464,
      "Im": 5465,
      "70": 5466,
      "Sy": 5467,
      "sk": 5468,
      "ians": 5469,
      "until": 5470,
      "...": 5471,
      "certain": 5472,
      "nal": 5473,
      "research": 5474,
      "charac": 5475,
      "former": 5476,
      "Mc": 5477,
      "Euro": 5478,
      "posed": 5479,
      "sim": 5480,
      "actually": 5481,
      "often": 5482,
      "ences": 5483,
      "took": 5484,
      "ground": 5485,
      "exp": 5486,
      "ision": 5487,
      "__": 5488,
      "tar": 5489,
      "bar": 5490,
      "Republic": 5491,
      "likely": 5492,
      "field": 5493,
      "pot": 5494,
      "room": 5495,
      "Ind": 5496,
      "ying": 5497,
      "Ex": 5498,
      "ird": 5499,
      "Don": 5500,
      "give": 5501,
      "doing": 5502,
      "inc": 5503,
      "ney": 5504,
      "\u0000\u0000\u0000": 5505,
      "social": 5506,
      "Chr": 5507,
      "cle": 5508,
      "iversity": 5509,
      "prote": 5510,
      "nam": 5511,
      "ror": 5512,
      "went": 5513,
      "ley": 5514,
      "become": 5515,
      "media": 5516,
      "ey": 5517,
      "21": 5518,
      "hour": 5519,
      "Ac": 5520,
      "RE": 5521,
      "early": 5522,
      "members": 5523,
      "stop": 5524,
      "full": 5525,
      "mode": 5526,
      "seen": 5527,
      "pet": 5528,
      "member": 5529,
      "according": 5530,
      "Inter": 5531,
      "Ste": 5532,
      "aid": 5533,
      "uture": 5534,
      "employ": 5535,
      "ster": 5536,
      "ization": 5537,
      "crit": 5538,
      "mind": 5539,
      "author": 5540,
      "games": 5541,
      "ru": 5542,
      "Russ": 5543,
      "After": 5544,
      "Mon": 5545,
      "38": 5546,
      "Ph": 5547,
      "ined": 5548,
      "Pol": 5549,
      "having": 5550,
      "dam": 5551,
      "aring": 5552,
      "Bo": 5553,
      "course": 5554,
      "eve": 5555,
      "ank": 5556,
      "graph": 5557,
      "ury": 5558,
      "States": 5559,
      "event": 5560,
      "dri": 5561,
      "five": 5562,
      "children": 5563,
      "icle": 5564,
      "une": 5565,
      "AT": 5566,
      "non": 5567,
      "100": 5568,
      "Europe": 5569,
      "success": 5570,
      "Some": 5571,
      "Wor": 5572,
      "sent": 5573,
      "ought": 5574,
      "ither": 5575,
      "viol": 5576,
      "tt": 5577,
      "Dr": 5578,
      "mber": 5579,
      "acc": 5580,
      "sug": 5581,
      "milit": 5582,
      "force": 5583,
      "75": 5584,
      "ns": 5585,
      "ensive": 5586,
      "whether": 5587,
      "activ": 5588,
      "today": 5589,
      "soci": 5590,
      "uc": 5591,
      "Obama": 5592,
      "aff": 5593,
      "ben": 5594,
      "half": 5595,
      "ified": 5596,
      "question": 5597,
      "stit": 5598,
      "idence": 5599,
      "several": 5600,
      "product": 5601,
      "cast": 5602,
      "fight": 5603,
      "close": 5604,
      "struct": 5605,
      "ped": 5606,
      "tion": 5607,
      "mus": 5608,
      "wer": 5609,
      "legal": 5610,
      "count": 5611,
      "mid": 5612,
      "priv": 5613,
      "ints": 5614,
      "along": 5615,
      "ots": 5616,
      "aken": 5617,
      "IN": 5618,
      "Coun": 5619,
      "offer": 5620,
      "sour": 5621,
      "understand": 5622,
      "York": 5623,
      "meet": 5624,
      "months": 5625,
      "investig": 5626,
      "ER": 5627,
      "raw": 5628,
      "2016": 5629,
      "done": 5630,
      "gen": 5631,
      "ask": 5632,
      "future": 5633,
      "ream": 5634,
      "2015": 5635,
      "Sp": 5636,
      "example": 5637,
      "gether": 5638,
      "once": 5639,
      "avail": 5640,
      "fed": 5641,
      ".\u0000\u0000\u0000\u0000\u0000\u0000\u0000\u0000\u0000\u0000\u0000\u0000\u0000\u0000\u0000\u0000\u0000\u0000\u0000\u0000\u0000\u0000\u0000\u0000\u0000\u0000\u0000\u0000\u0000\u0000\u0000\u0000\u0000\u0000\u0000\u0000\u0000\u0000\u0000\u0000\u0000\u0000\u0000\u0000\u0000\u0000\u0000\u0000\u0000\u0000\u0000\u0000\u0000\u0000\u0000\u0000\u0000\u0000\u0000\u0000\u0000\u0000\u0000\u0000\u0000\u0000\u0000\u0000\u0000\u0000\u0000\u0000\u0000\u0000\u0000\u0000\u0000\u0000\u0000\u0000\u0000\u0000\u0000\u0000\u0000\u0000\u0000\u0000\u0000\u0000\u0000\u0000\u0000\u0000\u0000\u0000\u0000\u0000\u0000\u0000\u0000\u0000\u0000\u0000\u0000\u0000\u0000\u0000\u0000\u0000\u0000\u0000\u0000\u0000\u0000\u0000\u0000\u0000\u0000\u0000\u0000\u0000\u0000\u0000\u0000\u0000\u0000\u0000\u0000\u0000\u0000\u0000\u0000\u0000\u0000\u0000\u0000\u0000\u0000\u0000\u0000\u0000\u0000\u0000\u0000\u0000\u0000\u0000\u0000\u0000\u0000\u0000\u0000\u0000\u0000\u0000\u0000\u0000\u0000\u0000\u0000\u0000\u0000\u0000\u0000\u0000\u0000\u0000\u0000\u0000\u0000\u0000\u0000\u0000\u0000\u0000\u0000\u0000\u0000\u0000\u0000\u0000\u0000\u0000\u0000\u0000\u0000\u0000\u0000\u0000\u0000\u0000\u0000\u0000\u0000\u0000\u0000\u0000\u0000\u0000\u0000\u0000\u0000\u0000\u0000\u0000\u0000\u0000\u0000\u0000\u0000\u0000\u0000\u0000\u0000\u0000\u0000\u0000\u0000\u0000\u0000\u0000\u0000\u0000\u0000\u0000\u0000\u0000\u0000\u0000\u0000\u0000\u0000\u0000\u0000\u0000\u0000\u0000\u0000\u0000\u0000\u0000\u0000\u0000\u0000\u0000\u0000\u0000\u0000\u0000\u0000\u0000\u0000\u0000\u0000\u0000": 5642,
      "train": 5643,
      "ilar": 5644,
      "vert": 5645,
      "aged": 5646,
      "ories": 5647,
      "uary": 5648,
      "ential": 5649,
      "ple": 5650,
      "Not": 5651,
      "West": 5652,
      "asked": 5653,
      "//": 5654,
      "local": 5655,
      "En": 5656,
      "ially": 5657,
      "within": 5658,
      "ulation": 5659,
      "problem": 5660,
      "watch": 5661,
      "invol": 5662,
      "means": 5663,
      "While": 5664,
      "players": 5665,
      "State": 5666,
      "49": 5667,
      "Fe": 5668,
      "yet": 5669,
      "ators": 5670,
      "ded": 5671,
      "among": 5672,
      "mand": 5673,
      "Min": 5674,
      "Te": 5675,
      "tail": 5676,
      "young": 5677,
      "party": 5678,
      "fig": 5679,
      "Man": 5680,
      "fail": 5681,
      "Me": 5682,
      "67": 5683,
      "community": 5684,
      "short": 5685,
      "09": 5686,
      "Mic": 5687,
      "concer": 5688,
      "ler": 5689,
      "given": 5690,
      "ivid": 5691,
      "53": 5692,
      "web": 5693,
      "thought": 5694,
      "However": 5695,
      "death": 5696,
      "indust": 5697,
      "House": 5698,
      "orig": 5699,
      "getting": 5700,
      "AN": 5701,
      "gun": 5702,
      "augh": 5703,
      "makes": 5704,
      "believe": 5705,
      "fully": 5706,
      "video": 5707,
      "My": 5708,
      "dro": 5709,
      "mit": 5710,
      "together": 5711,
      "issue": 5712,
      "others": 5713,
      "market": 5714,
      "War": 5715,
      "gress": 5716,
      "Christ": 5717,
      "star": 5718,
      "48": 5719,
      "announ": 5720,
      "plac": 5721,
      "deb": 5722,
      "Democr": 5723,
      "Ser": 5724,
      "love": 5725,
      "spo": 5726,
      "nes": 5727,
      "strong": 5728,
      "prob": 5729,
      "2014": 5730,
      "Sen": 5731,
      "loc": 5732,
      "itive": 5733,
      "fur": 5734,
      "across": 5735,
      "ium": 5736,
      "security": 5737,
      "dev": 5738,
      "reported": 5739,
      "ali": 5740,
      "ising": 5741,
      "house": 5742,
      "pat": 5743,
      "ond": 5744,
      "step": 5745,
      "wal": 5746,
      "suggest": 5747,
      "control": 5748,
      "55": 5749,
      "term": 5750,
      "bad": 5751,
      "gl": 5752,
      "ane": 5753,
      "ague": 5754,
      "looking": 5755,
      "descri": 5756,
      "iety": 5757,
      "access": 5758,
      "ington": 5759,
      "ison": 5760,
      "hind": 5761,
      "pret": 5762,
      "----": 5763,
      "safe": 5764,
      "available": 5765,
      "America": 5766,
      "aster": 5767,
      "Do": 5768,
      "har": 5769,
      "fall": 5770,
      "reach": 5771,
      "University": 5772,
      "ible": 5773,
      "hip": 5774,
      "hy": 5775,
      "front": 5776,
      "publ": 5777,
      "mal": 5778,
      "live": 5779,
      "trad": 5780,
      "ove": 5781,
      "sof": 5782,
      "Canad": 5783,
      "88": 5784,
      "ibut": 5785,
      "ister": 5786,
      "ived": 5787,
      "film": 5788,
      "trying": 5789,
      "mot": 5790,
      "Ju": 5791,
      "particular": 5792,
      "mission": 5793,
      "complete": 5794,
      "ured": 5795,
      "77": 5796,
      "started": 5797,
      "foot": 5798,
      "ron": 5799,
      "39": 5800,
      "selves": 5801,
      "mom": 5802,
      "uses": 5803,
      "rul": 5804,
      "met": 5805,
      "Just": 5806,
      "disc": 5807,
      "hit": 5808,
      "compan": 5809,
      "iter": 5810,
      "foc": 5811,
      "isn": 5812,
      "almost": 5813,
      "bi": 5814,
      "Ge": 5815,
      "six": 5816,
      "These": 5817,
      "Har": 5818,
      "black": 5819,
      "66": 5820,
      "kes": 5821,
      "round": 5822,
      "sal": 5823,
      "aper": 5824,
      "following": 5825,
      "By": 5826,
      "pract": 5827,
      "crim": 5828,
      "Sun": 5829,
      "series": 5830,
      "wa": 5831,
      "Now": 5832,
      "gn": 5833,
      "load": 5834,
      "ony": 5835,
      "ividual": 5836,
      "sl": 5837,
      "ances": 5838,
      "court": 5839,
      "vo": 5840,
      "tom": 5841,
      "idea": 5842,
      "anal": 5843,
      "cret": 5844,
      "experience": 5845,
      "ustom": 5846,
      "Aust": 5847,
      "Eng": 5848,
      "history": 5849,
      "ination": 5850,
      "Bar": 5851,
      "fav": 5852,
      "added": 5853,
      "fire": 5854,
      "depend": 5855,
      "block": 5856,
      "proper": 5857,
      "conne": 5858,
      "Clint": 5859,
      "date": 5860,
      "89": 5861,
      "anything": 5862,
      "wards": 5863,
      "area": 5864,
      "taken": 5865,
      "cell": 5866,
      "points": 5867,
      "32": 5868,
      "Dep": 5869,
      "imm": 5870,
      "34": 5871,
      "threat": 5872,
      "tries": 5873,
      "**": 5874,
      "argu": 5875,
      "North": 5876,
      "National": 5877,
      "ON": 5878,
      "dit": 5879,
      "saying": 5880,
      "return": 5881,
      "bill": 5882,
      "similar": 5883,
      "bring": 5884,
      "itional": 5885,
      "board": 5886,
      "military": 5887,
      "dom": 5888,
      "aft": 5889,
      "behind": 5890,
      "ecut": 5891,
      "individual": 5892,
      "player": 5893,
      "Part": 5894,
      "wanted": 5895,
      "special": 5896,
      "fa": 5897,
      "exist": 5898,
      "rather": 5899,
      "Ger": 5900,
      "aver": 5901,
      "reed": 5902,
      "mess": 5903,
      "defin": 5904,
      "space": 5905,
      "band": 5906,
      "someone": 5907,
      "Res": 5908,
      "taking": 5909,
      "food": 5910,
      "uge": 5911,
      "Clinton": 5912,
      ".,": 5913,
      "Dav": 5914,
      "check": 5915,
      "break": 5916,
      "pick": 5917,
      "entire": 5918,
      "study": 5919,
      "woman": 5920,
      "ference": 5921,
      "road": 5922,
      "impro": 5923,
      "ding": 5924,
      "photo": 5925,
      "mult": 5926,
      "turned": 5927,
      "AR": 5928,
      "itions": 5929,
      "ges": 5930,
      "tow": 5931,
      "single": 5932,
      "2013": 5933,
      "Gu": 5934,
      "previous": 5935,
      "sty": 5936,
      "phone": 5937,
      "reet": 5938,
      "His": 5939,
      "discuss": 5940,
      "ior": 5941,
      "friend": 5942,
      "ham": 5943,
      "Sc": 5944,
      "Brit": 5945,
      "52": 5946,
      "ched": 5947,
      "text": 5948,
      "lier": 5949,
      "policy": 5950,
      "World": 5951,
      "wide": 5952,
      "sell": 5953,
      "ott": 5954,
      "sus": 5955,
      "Isra": 5956,
      "colle": 5957,
      "ull": 5958,
      "paren": 5959,
      "type": 5960,
      "version": 5961,
      "probably": 5962,
      "attem": 5963,
      "docu": 5964,
      "pen": 5965,
      "Wash": 5966,
      "explain": 5967,
      "else": 5968,
      "quick": 5969,
      "rights": 5970,
      "ention": 5971,
      "ife": 5972,
      "works": 5973,
      "service": 5974,
      "benef": 5975,
      "mass": 5976,
      "ana": 5977,
      "nothing": 5978,
      "roll": 5979,
      "imate": 5980,
      "create": 5981,
      "detail": 5982,
      "character": 5983,
      "cially": 5984,
      "rad": 5985,
      "agree": 5986,
      "artment": 5987,
      "glo": 5988,
      "tee": 5989,
      "ae": 5990,
      "decl": 5991,
      "2012": 5992,
      "199": 5993,
      "AS": 5994,
      "box": 5995,
      "Je": 5996,
      "signific": 5997,
      "65": 5998,
      "exper": 5999,
      "third": 6000,
      "scre": 6001,
      "uff": 6002,
      "redu": 6003,
      "ald": 6004,
      "Washington": 6005,
      "31": 6006,
      "iday": 6007,
      "comb": 6008,
      "specific": 6009,
      "cul": 6010,
      "ock": 6011,
      "ming": 6012,
      "companies": 6013,
      "either": 6014,
      "ivil": 6015,
      "sound": 6016,
      "federal": 6017,
      "utes": 6018,
      "lies": 6019,
      "gain": 6020,
      "infl": 6021,
      "feat": 6022,
      "Tim": 6023,
      "cted": 6024,
      "statement": 6025,
      "City": 6026,
      "hope": 6027,
      "ging": 6028,
      "share": 6029,
      "due": 6030,
      "viron": 6031,
      "issues": 6032,
      "stat": 6033,
      "sen": 6034,
      "however": 6035,
      "stri": 6036,
      ".)": 6037,
      "gets": 6038,
      "Wil": 6039,
      "states": 6040,
      "email": 6041,
      "2017": 6042,
      "ids": 6043,
      "whole": 6044,
      "anger": 6045,
      "rote": 6046,
      "commit": 6047,
      "equ": 6048,
      "custom": 6049,
      "amoun": 6050,
      "cop": 6051,
      "liam": 6052,
      "Jan": 6053,
      "Pl": 6054,
      "BC": 6055,
      "07": 6056,
      "represent": 6057,
      "rate": 6058,
      "abor": 6059,
      "Mus": 6060,
      "shot": 6061,
      "everything": 6062,
      "ww": 6063,
      "played": 6064,
      "host": 6065,
      "attle": 6066,
      "track": 6067,
      "personal": 6068,
      "Sep": 6069,
      "decision": 6070,
      "58": 6071,
      "matter": 6072,
      "conf": 6073,
      "tit": 6074,
      "seems": 6075,
      "chall": 6076,
      "wrote": 6077,
      "ford": 6078,
      "lish": 6079,
      "drug": 6080,
      "further": 6081,
      "uel": 6082,
      "Twit": 6083,
      "released": 6084,
      "role": 6085,
      "match": 6086,
      "dou": 6087,
      "development": 6088,
      "pie": 6089,
      "anim": 6090,
      "pite": 6091,
      "Par": 6092,
      "reme": 6093,
      "general": 6094,
      "meas": 6095,
      "bb": 6096,
      "South": 6097,
      "common": 6098,
      "typ": 6099,
      "Face": 6100,
      "leaders": 6101,
      "result": 6102,
      "students": 6103,
      "inste": 6104,
      "sco": 6105,
      "enn": 6106,
      "Med": 6107,
      "execut": 6108,
      "init": 6109,
      "words": 6110,
      "hours": 6111,
      "TH": 6112,
      "China": 6113,
      "begin": 6114,
      "lam": 6115,
      "urs": 6116,
      "true": 6117,
      "word": 6118,
      "value": 6119,
      "officials": 6120,
      "draw": 6121,
      "ender": 6122,
      "Cor": 6123,
      "final": 6124,
      "building": 6125,
      "amer": 6126,
      "election": 6127,
      "uation": 6128,
      "office": 6129,
      "ES": 6130,
      "ctions": 6131,
      "0147": 6132,
      "code": 6133,
      "angu": 6134,
      "white": 6135,
      "launch": 6136,
      "cand": 6137,
      "jud": 6138,
      "ief": 6139,
      "anti": 6140,
      "countries": 6141,
      "Per": 6142,
      "began": 6143,
      "ively": 6144,
      "tic": 6145,
      "itted": 6146,
      "deli": 6147,
      "vision": 6148,
      "asing": 6149,
      "lock": 6150,
      "themselves": 6151,
      "Twitter": 6152,
      "ify": 6153,
      "pose": 6154,
      "lement": 6155,
      "significant": 6156,
      "above": 6157,
      "relation": 6158,
      "continue": 6159,
      "address": 6160,
      "music": 6161,
      "64": 6162,
      "held": 6163,
      "provide": 6164,
      "itself": 6165,
      "ently": 6166,
      "inj": 6167,
      "himself": 6168,
      "simply": 6169,
      "saw": 6170,
      "News": 6171,
      "needs": 6172,
      "87": 6173,
      "Fl": 6174,
      "forward": 6175,
      "appear": 6176,
      "outside": 6177,
      "playing": 6178,
      "reco": 6179,
      "White": 6180,
      "ournal": 6181,
      "lt": 6182,
      "industry": 6183,
      "profess": 6184,
      "TV": 6185,
      "mis": 6186,
      "dest": 6187,
      "became": 6188,
      "htt": 6189,
      "super": 6190,
      "link": 6191,
      "relig": 6192,
      "vote": 6193,
      "evidence": 6194,
      "talk": 6195,
      "release": 6196,
      "base": 6197,
      "worth": 6198,
      "da": 6199,
      "More": 6200,
      "financ": 6201,
      "running": 6202,
      "ctor": 6203,
      "App": 6204,
      "ands": 6205,
      "dle": 6206,
      "ogle": 6207,
      "range": 6208,
      "ai": 6209,
      "espe": 6210,
      "Facebook": 6211,
      "quite": 6212,
      "administ": 6213,
      "vironment": 6214,
      "mag": 6215,
      "sequ": 6216,
      "sense": 6217,
      "Photo": 6218,
      "include": 6219,
      "pretty": 6220,
      "treat": 6221,
      "flo": 6222,
      "especially": 6223,
      "groups": 6224,
      "everyone": 6225,
      "Am": 6226,
      "unity": 6227,
      "billion": 6228,
      "wind": 6229,
      "tru": 6230,
      "Gre": 6231,
      "shows": 6232,
      "changes": 6233,
      "Tur": 6234,
      "ades": 6235,
      "actions": 6236,
      "ze": 6237,
      "educ": 6238,
      "phys": 6239,
      "gir": 6240,
      "believ": 6241,
      "expected": 6242,
      "hom": 6243,
      "quar": 6244,
      "interview": 6245,
      "59": 6246,
      "hor": 6247,
      "contain": 6248,
      "diffic": 6249,
      "II": 6250,
      "ried": 6251,
      "shoot": 6252,
      "medi": 6253,
      "continu": 6254,
      "town": 6255,
      "://": 6256,
      "wasn": 6257,
      "needed": 6258,
      "approach": 6259,
      "uni": 6260,
      "necess": 6261,
      "push": 6262,
      "stay": 6263,
      "ee": 6264,
      "function": 6265,
      "applic": 6266,
      "lost": 6267,
      "According": 6268,
      "energy": 6269,
      "vic": 6270,
      "quality": 6271,
      "AP": 6272,
      "ners": 6273,
      "rac": 6274,
      "Google": 6275,
      "nation": 6276,
      "hol": 6277,
      "review": 6278,
      "cit": 6279,
      "instead": 6280,
      "43": 6281,
      "comput": 6282,
      "Austral": 6283,
      "ilt": 6284,
      "economic": 6285,
      "Of": 6286,
      "div": 6287,
      "Act": 6288,
      "aut": 6289,
      "pain": 6290,
      "below": 6291,
      "accept": 6292,
      "ption": 6293,
      "tre": 6294,
      "candid": 6295,
      "scri": 6296,
      "ience": 6297,
      "soc": 6298,
      "soon": 6299,
      "Here": 6300,
      "sed": 6301,
      "object": 6302,
      "bly": 6303,
      "explo": 6304,
      "popular": 6305,
      "ken": 6306,
      "iding": 6307,
      "dict": 6308,
      "content": 6309,
      "ager": 6310,
      "Su": 6311,
      "lower": 6312,
      "Red": 6313,
      "recently": 6314,
      "69": 6315,
      "opport": 6316,
      "wrong": 6317,
      "goal": 6318,
      "sess": 6319,
      "Department": 6320,
      "aul": 6321,
      "AL": 6322,
      "log": 6323,
      "cil": 6324,
      "total": 6325,
      "forman": 6326,
      "serious": 6327,
      "bert": 6328,
      "Ear": 6329,
      "March": 6330,
      "alleg": 6331,
      "68": 6332,
      "longer": 6333,
      "arr": 6334,
      "cult": 6335,
      "spir": 6336,
      "respect": 6337,
      "services": 6338,
      "langu": 6339,
      "Fir": 6340,
      "coup": 6341,
      "compet": 6342,
      "2011": 6343,
      "weeks": 6344,
      "article": 6345,
      "period": 6346,
      "0150": 6347,
      "page": 6348,
      "AC": 6349,
      "technology": 6350,
      "Cong": 6351,
      "cir": 6352,
      "ples": 6353,
      "Off": 6354,
      "rup": 6355,
      "contribut": 6356,
      "pack": 6357,
      "strate": 6358,
      "Syri": 6359,
      "teach": 6360,
      "ping": 6361,
      "aging": 6362,
      "Em": 6363,
      "July": 6364,
      "dead": 6365,
      "sha": 6366,
      "Aug": 6367,
      "friends": 6368,
      "source": 6369,
      "minutes": 6370,
      "Wal": 6371,
      "Des": 6372,
      "created": 6373,
      "killed": 6374,
      ".\u0000\u0000\u0000\u0000\u0000\u0000\u0000\u0000\u0000\u0000\u0000\u0000\u0000\u0000\u0000\u0000\u0000\u0000\u0000\u0000\u0000\u0000\u0000\u0000\u0000\u0000\u0000\u0000\u0000\u0000\u0000\u0000\u0000\u0000\u0000\u0000\u0000\u0000\u0000\u0000\u0000\u0000\u0000\u0000\u0000\u0000\u0000\u0000\u0000\u0000\u0000\u0000\u0000\u0000\u0000\u0000\u0000\u0000\u0000\u0000\u0000\u0000\u0000\u0000\u0000\u0000\u0000\u0000\u0000\u0000\u0000\u0000\u0000\u0000\u0000\u0000\u0000\u0000\u0000\u0000\u0000\u0000\u0000\u0000\u0000\u0000\u0000\u0000\u0000\u0000\u0000\u0000\u0000\u0000\u0000\u0000\u0000\u0000\u0000\u0000\u0000\u0000\u0000\u0000\u0000\u0000\u0000\u0000\u0000\u0000\u0000\u0000\u0000\u0000\u0000\u0000\u0000\u0000\u0000\u0000\u0000\u0000\u0000\u0000\u0000\u0000\u0000\u0000": 6375,
      "Hill": 6376,
      "moment": 6377,
      "protest": 6378,
      "prim": 6379,
      "OS": 6380,
      "oud": 6381,
      "urch": 6382,
      "June": 6383,
      "risk": 6384,
      "higher": 6385,
      "favor": 6386,
      "Ab": 6387,
      "tro": 6388,
      "ilities": 6389,
      "itch": 6390,
      "Even": 6391,
      "gas": 6392,
      "surpr": 6393,
      "terror": 6394,
      "Congress": 6395,
      "target": 6396,
      "account": 6397,
      "express": 6398,
      "San": 6399,
      "54": 6400,
      "Spe": 6401,
      "Ed": 6402,
      "God": 6403,
      "potential": 6404,
      "online": 6405,
      "rown": 6406,
      "famil": 6407,
      "moved": 6408,
      "speak": 6409,
      "anyone": 6410,
      "ows": 6411,
      "scient": 6412,
      "iple": 6413,
      "civil": 6414,
      "easy": 6415,
      "attempt": 6416,
      "ox": 6417,
      "Republican": 6418,
      "haps": 6419,
      "Cr": 6420,
      "results": 6421,
      "First": 6422,
      "lin": 6423,
      "na": 6424,
      "announced": 6425,
      "sold": 6426,
      "comment": 6427,
      "ba": 6428,
      "AM": 6429,
      "fair": 6430,
      "Apr": 6431,
      "cing": 6432,
      "pan": 6433,
      "demand": 6434,
      "covered": 6435,
      "fast": 6436,
      "sw": 6437,
      "Lo": 6438,
      "tor": 6439,
      "male": 6440,
      "moder": 6441,
      ");": 6442,
      "Pal": 6443,
      "Qu": 6444,
      "private": 6445,
      "Cour": 6446,
      "refer": 6447,
      "kets": 6448,
      "Char": 6449,
      "ung": 6450,
      "hood": 6451,
      "Americans": 6452,
      "rew": 6453,
      "Po": 6454,
      "IT": 6455,
      "workers": 6456,
      "Geor": 6457,
      "ino": 6458,
      "relationship": 6459,
      "users": 6460,
      "published": 6461,
      "atives": 6462,
      "reve": 6463,
      "2010": 6464,
      "performan": 6465,
      "Friday": 6466,
      "received": 6467,
      "Oc": 6468,
      "Her": 6469,
      "lex": 6470,
      "difficult": 6471,
      "08": 6472,
      "Get": 6473,
      "via": 6474,
      "nel": 6475,
      "mater": 6476,
      "ij": 6477,
      "tellig": 6478,
      "cases": 6479,
      "Sm": 6480,
      "responsi": 6481,
      "arm": 6482,
      "problems": 6483,
      "natur": 6484,
      "questions": 6485,
      "Russia": 6486,
      "amount": 6487,
      "Donald": 6488,
      "rain": 6489,
      "42": 6490,
      "intro": 6491,
      "79": 6492,
      "ange": 6493,
      "earlier": 6494,
      "increase": 6495,
      "sil": 6496,
      "iet": 6497,
      "03": 6498,
      "ites": 6499,
      "April": 6500,
      "OR": 6501,
      "oil": 6502,
      "estab": 6503,
      "weap": 6504,
      "environment": 6505,
      "average": 6506,
      "ugg": 6507,
      "David": 6508,
      "mark": 6509,
      "original": 6510,
      "ech": 6511,
      "Mi": 6512,
      "counter": 6513,
      "leave": 6514,
      "firm": 6515,
      "ouch": 6516,
      "cannot": 6517,
      "living": 6518,
      "itten": 6519,
      "tember": 6520,
      "Tues": 6521,
      "Monday": 6522,
      "nearly": 6523,
      "response": 6524,
      "apan": 6525,
      "worked": 6526,
      "staff": 6527,
      "EN": 6528,
      "verse": 6529,
      "emp": 6530,
      "emer": 6531,
      "meth": 6532,
      "exact": 6533,
      "September": 6534,
      "vict": 6535,
      "Mor": 6536,
      "wish": 6537,
      "arrest": 6538,
      "answer": 6539,
      "involved": 6540,
      "lines": 6541,
      "Tuesday": 6542,
      "omb": 6543,
      "ires": 6544,
      "buy": 6545,
      "deep": 6546,
      "heav": 6547,
      "mother": 6548,
      "foreign": 6549,
      "request": 6550,
      "UK": 6551,
      "sem": 6552,
      "lying": 6553,
      "isl": 6554,
      "76": 6555,
      "Japan": 6556,
      "bility": 6557,
      "opt": 6558,
      "financial": 6559,
      "Afr": 6560,
      "Islam": 6561,
      "05": 6562,
      "collect": 6563,
      "cli": 6564,
      "ift": 6565,
      "broad": 6566,
      "related": 6567,
      "reports": 6568,
      "onto": 6569,
      "bon": 6570,
      "fill": 6571,
      "speed": 6572,
      "dig": 6573,
      "East": 6574,
      "introdu": 6575,
      "ica": 6576,
      "takes": 6577,
      "fans": 6578,
      "card": 6579,
      "\u0000\u0000\u0000\u0000\u0000\u0000\u0000\u0000\u0000\u0000\u0000\u0000\u0000\u0000\u0000\u0000\u0000\u0000\u0000\u0000": 6580,
      "engine": 6581,
      "club": 6582,
      "Wed": 6583,
      "currently": 6584,
      "IC": 6585,
      "izing": 6586,
      "nu": 6587,
      "coach": 6588,
      "Israel": 6589,
      "78": 6590,
      "chance": 6591,
      "built": 6592,
      "vertise": 6593,
      "regard": 6594,
      "director": 6595,
      "terms": 6596,
      "istic": 6597,
      "inside": 6598,
      "ring": 6599,
      "associ": 6600,
      "lied": 6601,
      "price": 6602,
      "decided": 6603,
      "lack": 6604,
      "hop": 6605,
      "international": 6606,
      "tour": 6607,
      "goes": 6608,
      "pict": 6609,
      "\u0000\u0000\u0000\u0000\u0000\u0000\u0000\u0000\u0000\u0000\u0000\u0000\u0000\u0000\u0000\u0000\u0000\u0000\u0000\u0000\u0000\u0000\u0000\u0000\u0000\u0000\u0000\u0000": 6610,
      "immedi": 6611,
      "trade": 6612,
      "Nove": 6613,
      "heart": 6614,
      "exc": 6615,
      "hot": 6616,
      "capital": 6617,
      "allowed": 6618,
      "situation": 6619,
      "subject": 6620,
      "From": 6621,
      "feature": 6622,
      "global": 6623,
      "inte": 6624,
      "acts": 6625,
      "simple": 6626,
      "tool": 6627,
      "ises": 6628,
      "store": 6629,
      "model": 6630,
      "Our": 6631,
      "west": 6632,
      "joy": 6633,
      "recogn": 6634,
      "audi": 6635,
      "lives": 6636,
      "thern": 6637,
      "ffer": 6638,
      "require": 6639,
      "perform": 6640,
      "happened": 6641,
      "\".": 6642,
      "attr": 6643,
      "events": 6644,
      "secret": 6645,
      "active": 6646,
      "Party": 6647,
      "Str": 6648,
      "whose": 6649,
      "protect": 6650,
      "ny": 6651,
      "squ": 6652,
      "tele": 6653,
      "mention": 6654,
      "cd": 6655,
      "Phil": 6656,
      "material": 6657,
      "ery": 6658,
      "dol": 6659,
      "istan": 6660,
      "Post": 6661,
      "Wednes": 6662,
      "screen": 6663,
      "couple": 6664,
      "corpor": 6665,
      "spect": 6666,
      "January": 6667,
      "clus": 6668,
      "\",": 6669,
      "loss": 6670,
      "Paul": 6671,
      "condu": 6672,
      "bot": 6673,
      "plans": 6674,
      "repe": 6675,
      "European": 6676,
      "huge": 6677,
      "indic": 6678,
      "Dis": 6679,
      "gave": 6680,
      "influ": 6681,
      "Wednesday": 6682,
      "supp": 6683,
      "termin": 6684,
      "Sch": 6685,
      "coll": 6686,
      "ID": 6687,
      "Star": 6688,
      "November": 6689,
      "Then": 6690,
      "Every": 6691,
      "stream": 6692,
      "Iran": 6693,
      "ker": 6694,
      "ival": 6695,
      "hi": 6696,
      "path": 6697,
      "seven": 6698,
      "____": 6699,
      "41": 6700,
      "gs": 6701,
      "Court": 6702,
      "Thurs": 6703,
      "style": 6704,
      "wood": 6705,
      "ky": 6706,
      "51": 6707,
      "heard": 6708,
      "Cap": 6709,
      "Why": 6710,
      "Black": 6711,
      "aving": 6712,
      "race": 6713,
      "wel": 6714,
      "cup": 6715,
      "size": 6716,
      "Canada": 6717,
      "hear": 6718,
      "affect": 6719,
      "British": 6720,
      "method": 6721,
      "Up": 6722,
      "AD": 6723,
      "teams": 6724,
      "Sunday": 6725,
      "Russian": 6726,
      "document": 6727,
      "Thursday": 6728,
      "systems": 6729,
      "felt": 6730,
      "500": 6731,
      "rid": 6732,
      "Ho": 6733,
      "forces": 6734,
      "ED": 6735,
      "mist": 6736,
      "thous": 6737,
      "performance": 6738,
      "ases": 6739,
      "meeting": 6740,
      "particip": 6741,
      "grad": 6742,
      "Dece": 6743,
      "nia": 6744,
      "fell": 6745,
      "Muslim": 6746,
      "morning": 6747,
      "lic": 6748,
      "production": 6749,
      "language": 6750,
      "image": 6751,
      "aily": 6752,
      "stant": 6753,
      "travel": 6754,
      "alter": 6755,
      "atory": 6756,
      "training": 6757,
      "August": 6758,
      "December": 6759,
      "OP": 6760,
      "El": 6761,
      "inv": 6762,
      "impact": 6763,
      "iment": 6764,
      "visit": 6765,
      "63": 6766,
      "prison": 6767,
      "father": 6768,
      "Sand": 6769,
      "spent": 6770,
      "movement": 6771,
      "”.": 6772,
      "separ": 6773,
      "quickly": 6774,
      "tober": 6775,
      "leading": 6776,
      "avo": 6777,
      "looks": 6778,
      "olution": 6779,
      "improve": 6780,
      "written": 6781,
      "website": 6782,
      "Pat": 6783,
      "coin": 6784,
      "reveal": 6785,
      "numbers": 6786,
      "career": 6787,
      "tried": 6788,
      "struction": 6789,
      "Well": 6790,
      "prevent": 6791,
      "October": 6792,
      "suit": 6793,
      "wants": 6794,
      "population": 6795,
      "economy": 6796,
      "weet": 6797,
      "victim": 6798,
      "letter": 6799,
      "shop": 6800,
      "science": 6801,
      "areas": 6802,
      "paid": 6803,
      "rules": 6804,
      "progress": 6805,
      "jobs": 6806,
      "telligence": 6807,
      "ological": 6808,
      "Kore": 6809,
      "FC": 6810,
      "bud": 6811,
      "included": 6812,
      "dd": 6813,
      "havi": 6814,
      "dy": 6815,
      "citiz": 6816,
      "Satur": 6817,
      "perfect": 6818,
      "legisl": 6819,
      "Ira": 6820,
      "weight": 6821,
      "bir": 6822,
      "Hol": 6823,
      "paper": 6824,
      "Cent": 6825,
      "stor": 6826,
      "user": 6827,
      "contract": 6828,
      "natural": 6829,
      "wo": 6830,
      "sym": 6831,
      "Gener": 6832,
      "2008": 6833,
      "administration": 6834,
      "ering": 6835,
      "exam": 6836,
      "brought": 6837,
      "Times": 6838,
      "Tex": 6839,
      "aur": 6840,
      "soft": 6841,
      "Let": 6842,
      "Fin": 6843,
      "porters": 6844,
      "85": 6845,
      "map": 6846,
      "sexual": 6847,
      "plat": 6848,
      "regular": 6849,
      "Iraq": 6850,
      "attention": 6851,
      "communic": 6852,
      "Police": 6853,
      "damage": 6854,
      "van": 6855,
      "various": 6856,
      "Lon": 6857,
      "bank": 6858,
      "fit": 6859,
      "slow": 6860,
      "dependent": 6861,
      "King": 6862,
      "yond": 6863,
      "Cali": 6864,
      "file": 6865,
      "cc": 6866,
      "ape": 6867,
      "table": 6868,
      "hael": 6869,
      "veh": 6870,
      "regul": 6871,
      "talking": 6872,
      "named": 6873,
      "Street": 6874,
      "features": 6875,
      "neigh": 6876,
      "Park": 6877,
      "extreme": 6878,
      "?”": 6879,
      "giving": 6880,
      "74": 6881,
      "bul": 6882,
      "leader": 6883,
      "Califor": 6884,
      "speech": 6885,
      "smo": 6886,
      "latest": 6887,
      "print": 6888,
      "brain": 6889,
      "growth": 6890,
      "Day": 6891,
      "knew": 6892,
      "network": 6893,
      "focus": 6894,
      "aves": 6895,
      "ico": 6896,
      "guy": 6897,
      "undred": 6898,
      "hands": 6899,
      "Che": 6900,
      "demon": 6901,
      "learn": 6902,
      "Most": 6903,
      "violence": 6904,
      "promot": 6905,
      "upon": 6906,
      "ties": 6907,
      "\u0000\u0000\u0000\u0000\u0000\u0000\u0000\u0000\u0000\u0000\u0000\u0000": 6908,
      "achie": 6909,
      "changed": 6910,
      "arily": 6911,
      "Read": 6912,
      "laws": 6913,
      "73": 6914,
      "suffer": 6915,
      "parts": 6916,
      "moving": 6917,
      "India": 6918,
      "mach": 6919,
      "Senate": 6920,
      "cross": 6921,
      "Ben": 6922,
      "levels": 6923,
      "stead": 6924,
      "ledge": 6925,
      "medical": 6926,
      "critic": 6927,
      "behavi": 6928,
      "62": 6929,
      "parents": 6930,
      "calls": 6931,
      "Sw": 6932,
      "scene": 6933,
      "Play": 6934,
      "ceed": 6935,
      "Many": 6936,
      "California": 6937,
      "ordin": 6938,
      "center": 6939,
      "72": 6940,
      "County": 6941,
      "ert": 6942,
      "defense": 6943,
      "song": 6944,
      "zz": 6945,
      "enced": 6946,
      "remember": 6947,
      "mak": 6948,
      "James": 6949,
      "pic": 6950,
      "sn": 6951,
      "occur": 6952,
      "poor": 6953,
      "assa": 6954,
      "2009": 6955,
      "tware": 6956,
      "investigation": 6957,
      "door": 6958,
      "Green": 6959,
      "mill": 6960,
      "secut": 6961,
      "journal": 6962,
      "Sup": 6963,
      "sens": 6964,
      "agement": 6965,
      "Bro": 6966,
      "increasing": 6967,
      "][": 6968,
      "sort": 6969,
      "People": 6970,
      "wise": 6971,
      "writing": 6972,
      "aud": 6973,
      "carry": 6974,
      "addition": 6975,
      "surve": 6976,
      "vice": 6977,
      "anch": 6978,
      "pread": 6979,
      "Michael": 6980,
      "ension": 6981,
      "officers": 6982,
      "stitution": 6983,
      "forms": 6984,
      "completely": 6985,
      "Fed": 6986,
      "Saturday": 6987,
      "except": 6988,
      "roy": 6989,
      "immig": 6990,
      "Soc": 6991,
      "considered": 6992,
      "consist": 6993,
      "vertisement": 6994,
      "obvious": 6995,
      "message": 6996,
      "ST": 6997,
      "camer": 6998,
      "depart": 6999,
      "FL": 7000,
      "write": 7001,
      "incident": 7002,
      "Pre": 7003,
      "interesting": 7004,
      "London": 7005,
      "deliver": 7006,
      "society": 7007,
      "Val": 7008,
      "books": 7009,
      "corre": 7010,
      "install": 7011,
      "BI": 7012,
      "ients": 7013,
      "arri": 7014,
      "ille": 7015,
      "despite": 7016,
      "looked": 7017,
      "rit": 7018,
      "stuff": 7019,
      "piece": 7020,
      "ye": 7021,
      "histor": 7022,
      "attacks": 7023,
      "movie": 7024,
      "extra": 7025,
      ".\u0000\u0000\u0000\u0000\u0000\u0000\u0000\u0000\u0000\u0000\u0000\u0000\u0000\u0000\u0000\u0000\u0000\u0000\u0000\u0000\u0000\u0000\u0000\u0000\u0000\u0000\u0000\u0000\u0000\u0000\u0000\u0000\u0000\u0000\u0000\u0000\u0000\u0000\u0000\u0000\u0000\u0000\u0000\u0000\u0000\u0000\u0000\u0000\u0000\u0000\u0000\u0000\u0000\u0000\u0000\u0000\u0000\u0000\u0000\u0000\u0000\u0000\u0000\u0000\u0000\u0000\u0000\u0000\u0000\u0000\u0000\u0000\u0000\u0000\u0000\u0000\u0000\u0000\u0000\u0000\u0000\u0000\u0000\u0000\u0000\u0000\u0000\u0000\u0000\u0000\u0000\u0000\u0000\u0000\u0000\u0000\u0000\u0000\u0000\u0000\u0000\u0000\u0000\u0000\u0000\u0000\u0000\u0000\u0000\u0000\u0000\u0000\u0000\u0000\u0000\u0000\u0000\u0000\u0000\u0000\u0000\u0000\u0000\u0000\u0000\u0000\u0000\u0000\u0000\u0000\u0000\u0000\u0000\u0000\u0000\u0000\u0000\u0000\u0000\u0000\u0000\u0000\u0000\u0000\u0000\u0000\u0000\u0000\u0000\u0000\u0000\u0000\u0000\u0000\u0000\u0000\u0000\u0000\u0000\u0000\u0000\u0000\u0000\u0000\u0000\u0000\u0000\u0000\u0000\u0000\u0000\u0000\u0000\u0000\u0000\u0000\u0000\u0000\u0000\u0000\u0000\u0000\u0000\u0000\u0000\u0000\u0000\u0000\u0000\u0000\u0000\u0000\u0000\u0000\u0000\u0000\u0000\u0000\u0000\u0000\u0000\u0000\u0000\u0000\u0000\u0000\u0000\u0000\u0000\u0000\u0000\u0000\u0000\u0000\u0000\u0000\u0000\u0000\u0000\u0000\u0000\u0000\u0000\u0000\u0000\u0000\u0000\u0000\u0000\u0000\u0000\u0000\u0000\u0000\u0000\u0000\u0000\u0000\u0000\u0000\u0000\u0000\u0000\u0000\u0000\u0000\u0000\u0000\u0000\u0000\u0000\u0000\u0000\u0000\u0000\u0000\u0000\u0000\u0000\u0000\u0000\u0000\u0000\u0000\u0000\u0000\u0000\u0000\u0000\u0000\u0000\u0000\u0000\u0000\u0000\u0000\u0000\u0000\u0000\u0000\u0000\u0000\u0000\u0000\u0000\u0000\u0000\u0000\u0000\u0000\u0000\u0000\u0000\u0000\u0000\u0000\u0000\u0000\u0000\u0000\u0000\u0000\u0000\u0000\u0000\u0000\u0000\u0000\u0000\u0000\u0000\u0000\u0000\u0000\u0000\u0000\u0000\u0000\u0000\u0000\u0000\u0000\u0000\u0000\u0000\u0000\u0000\u0000\u0000\u0000\u0000\u0000\u0000\u0000\u0000\u0000\u0000\u0000\u0000\u0000\u0000\u0000\u0000\u0000\u0000\u0000\u0000\u0000\u0000\u0000\u0000\u0000\u0000\u0000\u0000\u0000\u0000\u0000\u0000\u0000\u0000\u0000\u0000\u0000\u0000\u0000\u0000\u0000\u0000\u0000\u0000\u0000\u0000\u0000\u0000\u0000\u0000\u0000\u0000\u0000\u0000\u0000\u0000\u0000": 7026,
      "modern": 7027,
      "mur": 7028,
      "chief": 7029,
      "Air": 7030,
      "Since": 7031,
      "alone": 7032,
      "placed": 7033,
      "born": 7034,
      "strugg": 7035,
      "particularly": 7036,
      "bel": 7037,
      "Sam": 7038,
      "crow": 7039,
      "sometimes": 7040,
      "assist": 7041,
      "quarter": 7042,
      "Tor": 7043,
      "lled": 7044,
      "majority": 7045,
      "Mart": 7046,
      "aries": 7047,
      "stories": 7048,
      "http": 7049,
      "summer": 7050,
      "mob": 7051,
      "spr": 7052,
      "growing": 7053,
      "UN": 7054,
      "contact": 7055,
      "rench": 7056,
      "eight": 7057,
      "Over": 7058,
      "fix": 7059,
      "craft": 7060,
      "spokes": 7061,
      "hundred": 7062,
      "CE": 7063,
      "Last": 7064,
      "conserv": 7065,
      "ican": 7066,
      "products": 7067,
      "Ke": 7068,
      "bol": 7069,
      "spot": 7070,
      "wonder": 7071,
      "item": 7072,
      "pped": 7073,
      "note": 7074,
      "ribut": 7075,
      "prior": 7076,
      "iff": 7077,
      "opportunity": 7078,
      "education": 7079,
      "dollar": 7080,
      "Wind": 7081,
      "gency": 7082,
      "reedom": 7083,
      "stage": 7084,
      "icles": 7085,
      "sett": 7086,
      "b9": 7087,
      "exactly": 7088,
      "pts": 7089,
      "sets": 7090,
      "86": 7091,
      "Bill": 7092,
      "rict": 7093,
      "served": 7094,
      "culture": 7095,
      "Center": 7096,
      "certainly": 7097,
      "MP": 7098,
      "details": 7099,
      "liber": 7100,
      "effort": 7101,
      "ysis": 7102,
      "Net": 7103,
      "cru": 7104,
      "thinking": 7105,
      "usually": 7106,
      "erson": 7107,
      "biggest": 7108,
      "danger": 7109,
      "rap": 7110,
      "psy": 7111,
      "(@": 7112,
      "although": 7113,
      "ec": 7114,
      "Texas": 7115,
      "bc": 7116,
      "Image": 7117,
      "perhaps": 7118,
      "ened": 7119,
      "bruary": 7120,
      "lie": 7121,
      "reading": 7122,
      "resour": 7123,
      "February": 7124,
      "climate": 7125,
      "xim": 7126,
      "ishing": 7127,
      "ses": 7128,
      "Apple": 7129,
      "bd": 7130,
      "Oh": 7131,
      "surv": 7132,
      "Democratic": 7133,
      "tly": 7134,
      "Jack": 7135,
      "06": 7136,
      "hur": 7137,
      "entially": 7138,
      "cele": 7139,
      "wife": 7140,
      "reality": 7141,
      "practice": 7142,
      "claims": 7143,
      "Lu": 7144,
      "starting": 7145,
      "necessary": 7146,
      "required": 7147,
      "finally": 7148,
      "tack": 7149,
      "forts": 7150,
      "umb": 7151,
      "continued": 7152,
      "remains": 7153,
      "described": 7154,
      "strict": 7155,
      "complain": 7156,
      "Dan": 7157,
      "guys": 7158,
      "pul": 7159,
      "standard": 7160,
      "cry": 7161,
      "hosp": 7162,
      "core": 7163,
      "figure": 7164,
      "boy": 7165,
      "died": 7166,
      "fan": 7167,
      "hous": 7168,
      "bf": 7169,
      "native": 7170,
      "sec": 7171,
      "utions": 7172,
      "--------": 7173,
      "William": 7174,
      "ening": 7175,
      "century": 7176,
      "Rom": 7177,
      "neg": 7178,
      "stra": 7179,
      "fo": 7180,
      "zer": 7181,
      "safety": 7182,
      "cris": 7183,
      "kept": 7184,
      "provided": 7185,
      "meaning": 7186,
      "wall": 7187,
      "yn": 7188,
      "appeared": 7189,
      "ees": 7190,
      "appoint": 7191,
      "Republicans": 7192,
      "ously": 7193,
      "agon": 7194,
      "religious": 7195,
      "passed": 7196,
      "middle": 7197,
      "purch": 7198,
      "plant": 7199,
      "effects": 7200,
      "beyond": 7201,
      "happy": 7202,
      "forced": 7203,
      "designed": 7204,
      "limited": 7205,
      "debate": 7206,
      "PC": 7207,
      "characters": 7208,
      "software": 7209,
      "choice": 7210,
      "enjoy": 7211,
      "agency": 7212,
      "Rich": 7213,
      "girl": 7214,
      "inese": 7215,
      "Like": 7216,
      "gone": 7217,
      "sor": 7218,
      "sat": 7219,
      "region": 7220,
      "option": 7221,
      "implement": 7222,
      "comments": 7223,
      "teen": 7224,
      "71": 7225,
      "Gover": 7226,
      "sle": 7227,
      "rich": 7228,
      "central": 7229,
      "61": 7230,
      "ahead": 7231,
      "showed": 7232,
      "thus": 7233,
      "nuclear": 7234,
      "zon": 7235,
      "PS": 7236,
      "drive": 7237,
      "celebr": 7238,
      "pressure": 7239,
      "challeng": 7240,
      "Bre": 7241,
      "gar": 7242,
      "income": 7243,
      "couldn": 7244,
      "Def": 7245,
      "83": 7246,
      "Because": 7247,
      "Chinese": 7248,
      "enge": 7249,
      "wouldn": 7250,
      "ampion": 7251,
      "increased": 7252,
      "maintain": 7253,
      "\u0000\u0000\u0000\u0000\u0000\u0000\u0000\u0000\u0000\u0000\u0000\u0000\u0000\u0000\u0000\u0000\u0000\u0000\u0000\u0000\u0000\u0000\u0000\u0000\u0000\u0000\u0000\u0000\u0000\u0000\u0000\u0000\u0000\u0000\u0000\u0000\u0000\u0000\u0000\u0000\u0000\u0000\u0000\u0000\u0000\u0000\u0000\u0000\u0000\u0000\u0000\u0000\u0000\u0000\u0000\u0000\u0000\u0000\u0000\u0000\u0000\u0000\u0000\u0000\u0000\u0000\u0000\u0000\u0000\u0000\u0000\u0000\u0000\u0000\u0000\u0000\u0000\u0000\u0000\u0000\u0000\u0000\u0000\u0000\u0000\u0000\u0000\u0000\u0000\u0000\u0000\u0000\u0000\u0000\u0000\u0000\u0000\u0000\u0000\u0000\u0000\u0000\u0000\u0000\u0000\u0000\u0000\u0000\u0000\u0000\u0000\u0000\u0000\u0000\u0000\u0000\u0000\u0000\u0000\u0000\u0000\u0000\u0000\u0000\u0000\u0000\u0000\u0000\u0000\u0000\u0000\u0000\u0000\u0000\u0000\u0000\u0000\u0000\u0000\u0000\u0000\u0000\u0000\u0000\u0000\u0000\u0000\u0000\u0000\u0000\u0000\u0000\u0000\u0000\u0000\u0000\u0000\u0000\u0000\u0000\u0000\u0000\u0000\u0000\u0000\u0000\u0000\u0000\u0000\u0000\u0000\u0000\u0000\u0000\u0000\u0000\u0000\u0000\u0000\u0000\u0000\u0000\u0000\u0000\u0000\u0000\u0000\u0000\u0000\u0000\u0000\u0000\u0000\u0000\u0000\u0000\u0000\u0000\u0000\u0000\u0000\u0000\u0000\u0000\u0000\u0000\u0000\u0000\u0000\u0000\u0000\u0000\u0000\u0000\u0000\u0000\u0000\u0000\u0000\u0000\u0000\u0000\u0000\u0000\u0000\u0000\u0000\u0000\u0000\u0000\u0000\u0000\u0000\u0000\u0000\u0000\u0000\u0000\u0000\u0000\u0000\u0000\u0000\u0000\u0000\u0000\u0000\u0000\u0000\u0000\u0000\u0000\u0000\u0000\u0000\u0000\u0000\u0000\u0000\u0000\u0000\u0000\u0000\u0000\u0000\u0000\u0000\u0000\u0000\u0000\u0000\u0000\u0000\u0000\u0000\u0000\u0000\u0000\u0000\u0000\u0000\u0000\u0000\u0000\u0000\u0000\u0000\u0000\u0000\u0000\u0000\u0000\u0000\u0000\u0000\u0000\u0000\u0000\u0000\u0000\u0000\u0000\u0000\u0000\u0000\u0000\u0000\u0000\u0000\u0000\u0000\u0000\u0000\u0000\u0000\u0000\u0000\u0000\u0000\u0000\u0000\u0000\u0000\u0000\u0000\u0000\u0000\u0000\u0000\u0000\u0000\u0000\u0000\u0000\u0000\u0000\u0000\u0000\u0000\u0000\u0000\u0000\u0000\u0000\u0000\u0000\u0000\u0000\u0000\u0000\u0000\u0000\u0000\u0000\u0000\u0000\u0000\u0000\u0000\u0000\u0000\u0000\u0000\u0000\u0000\u0000\u0000\u0000\u0000\u0000\u0000\u0000\u0000\u0000\u0000\u0000\u0000\u0000\u0000\u0000\u0000\u0000\u0000\u0000": 7254,
      "mat": 7255,
      "costs": 7256,
      "nom": 7257,
      "opin": 7258,
      "officer": 7259,
      "includes": 7260,
      "vention": 7261,
      "complex": 7262,
      "reli": 7263,
      "towards": 7264,
      "imag": 7265,
      "select": 7266,
      "Bur": 7267,
      "tin": 7268,
      "multiple": 7269,
      "appears": 7270,
      "bound": 7271,
      "04": 7272,
      "efforts": 7273,
      "organization": 7274,
      "84": 7275,
      "pair": 7276,
      "==": 7277,
      "anced": 7278,
      "hab": 7279,
      "Ber": 7280,
      "touch": 7281,
      "computer": 7282,
      "join": 7283,
      "property": 7284,
      "consum": 7285,
      "ries": 7286,
      "Indian": 7287,
      "Super": 7288,
      "maybe": 7289,
      "mix": 7290,
      "OT": 7291,
      "bum": 7292,
      "Australia": 7293,
      "mic": 7294,
      "idge": 7295,
      "reng": 7296,
      "throughout": 7297,
      "ification": 7298,
      "standing": 7299,
      "Ma": 7300,
      "ET": 7301,
      "Ham": 7302,
      "ov": 7303,
      "throw": 7304,
      "Associ": 7305,
      "blood": 7306,
      "student": 7307,
      "acqu": 7308,
      "League": 7309,
      "directly": 7310,
      "Au": 7311,
      "aa": 7312,
      "sea": 7313,
      "ode": 7314,
      "aughter": 7315,
      "df": 7316,
      "epis": 7317,
      "suspect": 7318,
      "ws": 7319,
      "trust": 7320,
      "clean": 7321,
      "thousands": 7322,
      "largest": 7323,
      "Bu": 7324,
      "nature": 7325,
      "physical": 7326,
      "EU": 7327,
      "respond": 7328,
      "title": 7329,
      "voters": 7330,
      "normal": 7331,
      "Advertisement": 7332,
      "kids": 7333,
      "capt": 7334,
      "bing": 7335,
      "riage": 7336,
      "ops": 7337,
      "George": 7338,
      "Tod": 7339,
      "rates": 7340,
      "ware": 7341,
      "rank": 7342,
      "High": 7343,
      "Sci": 7344,
      "charge": 7345,
      "Although": 7346,
      "estim": 7347,
      "signed": 7348,
      "hero": 7349,
      "smart": 7350,
      "skill": 7351,
      "claimed": 7352,
      "French": 7353,
      "football": 7354,
      "Mac": 7355,
      "English": 7356,
      "Bel": 7357,
      "recomm": 7358,
      "convers": 7359,
      "Reg": 7360,
      "blog": 7361,
      "syn": 7362,
      "sites": 7363,
      "owners": 7364,
      "Ange": 7365,
      "presidential": 7366,
      "Minister": 7367,
      "General": 7368,
      "lease": 7369,
      "powerful": 7370,
      "device": 7371,
      "02": 7372,
      "Thom": 7373,
      "95": 7374,
      "nice": 7375,
      "wing": 7376,
      "beginning": 7377,
      "inde": 7378,
      "antic": 7379,
      "Yes": 7380,
      "Mex": 7381,
      "feed": 7382,
      "immediately": 7383,
      "adem": 7384,
      "relative": 7385,
      "chain": 7386,
      "Cha": 7387,
      "league": 7388,
      "chair": 7389,
      "copy": 7390,
      "iers": 7391,
      "reasons": 7392,
      "counts": 7393,
      "ufact": 7394,
      "receive": 7395,
      "color": 7396,
      "positive": 7397,
      "Christian": 7398,
      "SA": 7399,
      "za": 7400,
      "intelligence": 7401,
      "iver": 7402,
      "encour": 7403,
      "additional": 7404,
      "command": 7405,
      "schools": 7406,
      "cf": 7407,
      "fear": 7408,
      "helped": 7409,
      "battle": 7410,
      "stic": 7411,
      "EC": 7412,
      "dark": 7413,
      "weapons": 7414,
      "uk": 7415,
      "thers": 7416,
      "trial": 7417,
      "atever": 7418,
      "Syria": 7419,
      "toward": 7420,
      "budget": 7421,
      "Mag": 7422,
      "section": 7423,
      "setting": 7424,
      "emot": 7425,
      "treatment": 7426,
      "Gold": 7427,
      "instit": 7428,
      "streng": 7429,
      "distribut": 7430,
      "Trans": 7431,
      "Micro": 7432,
      "names": 7433,
      "inated": 7434,
      "resh": 7435,
      "encies": 7436,
      "flow": 7437,
      "ables": 7438,
      "upd": 7439,
      "bri": 7440,
      "successful": 7441,
      "www": 7442,
      "border": 7443,
      "hest": 7444,
      "rock": 7445,
      "venue": 7446,
      "ultim": 7447,
      "allows": 7448,
      "mental": 7449,
      "credit": 7450,
      "Internet": 7451,
      "sales": 7452,
      "analysis": 7453,
      "gender": 7454,
      "alleged": 7455,
      "Sal": 7456,
      "Union": 7457,
      "correct": 7458,
      "conditions": 7459,
      "fee": 7460,
      "Smith": 7461,
      "fighting": 7462,
      "democr": 7463,
      "advant": 7464,
      "ida": 7465,
      "cool": 7466,
      "gives": 7467,
      "poll": 7468,
      "Your": 7469,
      "stitute": 7470,
      "developed": 7471,
      "birth": 7472,
      "sched": 7473,
      "asc": 7474,
      "places": 7475,
      "82": 7476,
      "prep": 7477,
      "Del": 7478,
      "mitted": 7479,
      "Mer": 7480,
      "During": 7481,
      "impress": 7482,
      "customers": 7483,
      "frequ": 7484,
      "predict": 7485,
      "mail": 7486,
      "conference": 7487,
      "difference": 7488,
      "asy": 7489,
      "failed": 7490,
      "c9": 7491,
      "Democrats": 7492,
      "politics": 7493,
      "Mal": 7494,
      "bab": 7495,
      "ux": 7496,
      "send": 7497,
      "station": 7498,
      "myself": 7499,
      "shown": 7500,
      "prem": 7501,
      "Tom": 7502,
      "iles": 7503,
      "inno": 7504,
      "Jer": 7505,
      "compared": 7506,
      "era": 7507,
      "eyes": 7508,
      "Two": 7509,
      "aly": 7510,
      "candidate": 7511,
      "lose": 7512,
      "operation": 7513,
      "executive": 7514,
      "oring": 7515,
      "save": 7516,
      "ideas": 7517,
      "International": 7518,
      "drink": 7519,
      "Hillary": 7520,
      "Other": 7521,
      "):": 7522,
      "crime": 7523,
      "individuals": 7524,
      "yourself": 7525,
      "families": 7526,
      "peace": 7527,
      "avoid": 7528,
      "goals": 7529,
      "bes": 7530,
      "criminal": 7531,
      "benefits": 7532,
      "fine": 7533,
      "insur": 7534,
      "Cal": 7535,
      "lands": 7536,
      "Rev": 7537,
      "ek": 7538,
      "France": 7539,
      "ays": 7540,
      "Arab": 7541,
      "analy": 7542,
      "anks": 7543,
      "a9": 7544,
      "scr": 7545,
      "solute": 7546,
      "senior": 7547,
      "berg": 7548,
      "eye": 7549,
      "earch": 7550,
      "continues": 7551,
      "confir": 7552,
      "die": 7553,
      "calling": 7554,
      "?\"": 7555,
      "virt": 7556,
      "beat": 7557,
      "apparen": 7558,
      "unique": 7559,
      "ING": 7560,
      "murder": 7561,
      "college": 7562,
      "willing": 7563,
      "easily": 7564,
      "ado": 7565,
      "stock": 7566,
      "Also": 7567,
      "scale": 7568,
      "ission": 7569,
      "comfort": 7570,
      "confl": 7571,
      "pun": 7572,
      "rule": 7573,
      "La": 7574,
      "ram": 7575,
      "ston": 7576,
      "closed": 7577,
      "fuel": 7578,
      "Earth": 7579,
      "spending": 7580,
      "Stud": 7581,
      "crisis": 7582,
      "Who": 7583,
      "walk": 7584,
      "cture": 7585,
      "2007": 7586,
      "cise": 7587,
      "bomb": 7588,
      "manufact": 7589,
      "determin": 7590,
      "Sha": 7591,
      "See": 7592,
      "primary": 7593,
      "els": 7594,
      "etro": 7595,
      "meant": 7596,
      "previously": 7597,
      "overall": 7598,
      "projects": 7599,
      "Rob": 7600,
      "decades": 7601,
      "apped": 7602,
      "Ano": 7603,
      "activity": 7604,
      "liter": 7605,
      "Scott": 7606,
      "status": 7607,
      "Follow": 7608,
      "kick": 7609,
      "truth": 7610,
      "straight": 7611,
      "hon": 7612,
      "aware": 7613,
      "green": 7614,
      "aste": 7615,
      "concept": 7616,
      "300": 7617,
      "fol": 7618,
      "iced": 7619,
      "Council": 7620,
      "compe": 7621,
      "commer": 7622,
      "Sanders": 7623,
      "grand": 7624,
      "Another": 7625,
      "brand": 7626,
      "Ve": 7627,
      "eventually": 7628,
      "Press": 7629,
      "application": 7630,
      "gree": 7631,
      "ari": 7632,
      "followed": 7633,
      "Any": 7634,
      "parties": 7635,
      "Germany": 7636,
      "lling": 7637,
      "RO": 7638,
      "Ter": 7639,
      "Once": 7640,
      "Windows": 7641,
      "traditional": 7642,
      "rise": 7643,
      "marriage": 7644,
      "integr": 7645,
      "Sim": 7646,
      "serve": 7647,
      "mostly": 7648,
      "England": 7649,
      "psych": 7650,
      "German": 7651,
      "challenge": 7652,
      "shooting": 7653,
      "ta": 7654,
      "ateg": 7655,
      "phen": 7656,
      "caused": 7657,
      "funding": 7658,
      "cities": 7659,
      "employees": 7660,
      "Bay": 7661,
      "enem": 7662,
      "rare": 7663,
      "types": 7664,
      "church": 7665,
      "Law": 7666,
      "sun": 7667,
      "Secret": 7668,
      "session": 7669,
      "scen": 7670,
      "Mark": 7671,
      "clearly": 7672,
      "School": 7673,
      "fortun": 7674,
      "Mid": 7675,
      "doub": 7676,
      "mun": 7677,
      "expand": 7678,
      "seeing": 7679,
      "THE": 7680,
      "drop": 7681,
      "Are": 7682,
      "knowledge": 7683,
      "location": 7684,
      "aming": 7685,
      "Mike": 7686,
      "f9": 7687,
      "IA": 7688,
      "itely": 7689,
      "coal": 7690,
      "cat": 7691,
      "autom": 7692,
      "spend": 7693,
      "lection": 7694,
      "manager": 7695,
      "omen": 7696,
      "creating": 7697,
      "Art": 7698,
      "minim": 7699,
      "album": 7700,
      "uana": 7701,
      "images": 7702,
      "winning": 7703,
      "propos": 7704,
      "shut": 7705,
      "critical": 7706,
      "researchers": 7707,
      "street": 7708,
      "noted": 7709,
      "trou": 7710,
      "happens": 7711,
      "wait": 7712,
      "lor": 7713,
      "quot": 7714,
      "minor": 7715,
      "iation": 7716,
      "larger": 7717,
      "CH": 7718,
      "policies": 7719,
      "demonstr": 7720,
      "origin": 7721,
      "highly": 7722,
      "d9": 7723,
      "agreement": 7724,
      "ville": 7725,
      "voice": 7726,
      "sou": 7727,
      "measure": 7728,
      "reflect": 7729,
      "PM": 7730,
      "Ty": 7731,
      "beaut": 7732,
      "Microsoft": 7733,
      "authorities": 7734,
      "”,": 7735,
      "haven": 7736,
      "etc": 7737,
      "adding": 7738,
      "options": 7739,
      "Vir": 7740,
      "BA": 7741,
      "dog": 7742,
      "CO": 7743,
      "pi": 7744,
      "isions": 7745,
      "astic": 7746,
      "turning": 7747,
      "actual": 7748,
      "eth": 7749,
      "stick": 7750,
      "ease": 7751,
      "programs": 7752,
      "resources": 7753,
      "81": 7754,
      "organiz": 7755,
      "spread": 7756,
      "trip": 7757,
      "Tech": 7758,
      "sources": 7759,
      "Ken": 7760,
      "LE": 7761,
      "feet": 7762,
      "resist": 7763,
      "tural": 7764,
      "greater": 7765,
      "iew": 7766,
      "raised": 7767,
      "catch": 7768,
      "gold": 7769,
      "sey": 7770,
      "iled": 7771,
      "knows": 7772,
      "seemed": 7773,
      "absolute": 7774,
      "ivity": 7775,
      "display": 7776,
      "thes": 7777,
      ".’": 7778,
      "pool": 7779,
      "establish": 7780,
      "ijuana": 7781,
      "records": 7782,
      "Bit": 7783,
      "rants": 7784,
      "cars": 7785,
      "Ry": 7786,
      "mobile": 7787,
      "iving": 7788,
      "Under": 7789,
      "roid": 7790,
      "camera": 7791,
      "Lab": 7792,
      "female": 7793,
      "liament": 7794,
      "Flor": 7795,
      "Hum": 7796,
      "Mill": 7797,
      "charges": 7798,
      "frame": 7799,
      "freedom": 7800,
      "GB": 7801,
      "bs": 7802,
      "CN": 7803,
      "IP": 7804,
      "Alex": 7805,
      "iction": 7806,
      "Add": 7807,
      "arms": 7808,
      "platform": 7809,
      "Chic": 7810,
      "reached": 7811,
      "ensure": 7812,
      "Today": 7813,
      "opposition": 7814,
      "mas": 7815,
      "favorite": 7816,
      "citizens": 7817,
      "revol": 7818,
      "Cur": 7819,
      "usion": 7820,
      "appropri": 7821,
      "ML": 7822,
      "limit": 7823,
      "Lou": 7824,
      "Liber": 7825,
      "Canadian": 7826,
      "cum": 7827,
      "agreed": 7828,
      "Bush": 7829,
      "DA": 7830,
      "Western": 7831,
      "illegal": 7832,
      "0146": 7833,
      "values": 7834,
      "MS": 7835,
      "studies": 7836,
      "enforce": 7837,
      "massive": 7838,
      "believed": 7839,
      "orders": 7840,
      "()": 7841,
      "rant": 7842,
      "ural": 7843,
      "Sto": 7844,
      "TO": 7845,
      "raz": 7846,
      "BS": 7847,
      "fund": 7848,
      "MA": 7849,
      "ube": 7850,
      "weak": 7851,
      "click": 7852,
      "stood": 7853,
      "sad": 7854,
      "Health": 7855,
      "2006": 7856,
      "jump": 7857,
      "orial": 7858,
      "basic": 7859,
      "produced": 7860,
      "acted": 7861,
      "Security": 7862,
      "arrested": 7863,
      "choose": 7864,
      "EL": 7865,
      "mechan": 7866,
      "Will": 7867,
      "mig": 7868,
      "Mil": 7869,
      "Pri": 7870,
      "moun": 7871,
      "Instead": 7872,
      "lawy": 7873,
      "ighest": 7874,
      "opening": 7875,
      "justice": 7876,
      "opened": 7877,
      "fal": 7878,
      "Those": 7879,
      "Govern": 7880,
      "Office": 7881,
      "supposed": 7882,
      "Robert": 7883,
      "Dist": 7884,
      "feeling": 7885,
      "neighbor": 7886,
      "Chicago": 7887,
      "asking": 7888,
      "clud": 7889,
      "dream": 7890,
      "produce": 7891,
      "Time": 7892,
      "gay": 7893,
      "independent": 7894,
      "e9": 7895,
      "enty": 7896,
      "Uk": 7897,
      "picture": 7898,
      "lets": 7899,
      "Sur": 7900,
      "oppon": 7901,
      "CA": 7902,
      "whatever": 7903,
      "advis": 7904,
      "Mad": 7905,
      "prices": 7906,
      "——": 7907,
      "worse": 7908,
      "tend": 7909,
      "millions": 7910,
      "benefit": 7911,
      "behavior": 7912,
      "witch": 7913,
      "Franc": 7914,
      "telling": 7915,
      "minister": 7916,
      "nine": 7917,
      "offers": 7918,
      "ength": 7919,
      "gers": 7920,
      "!!": 7921,
      "Lin": 7922,
      "Que": 7923,
      "responsible": 7924,
      "negot": 7925,
      "weekend": 7926,
      "assu": 7927,
      "devices": 7928,
      "effective": 7929,
      "leaving": 7930,
      "hospital": 7931,
      "ental": 7932,
      "digital": 7933,
      "Big": 7934,
      "ota": 7935,
      "concerns": 7936,
      "whom": 7937,
      "Justice": 7938,
      "b8": 7939,
      "icians": 7940,
      "erve": 7941,
      "understanding": 7942,
      "generation": 7943,
      "Wall": 7944,
      "highest": 7945,
      "offered": 7946,
      "san": 7947,
      "vill": 7948,
      "posted": 7949,
      "iel": 7950,
      "daily": 7951,
      "Sub": 7952,
      "Game": 7953,
      "effic": 7954,
      "iar": 7955,
      "gather": 7956,
      "extremely": 7957,
      "ads": 7958,
      "charged": 7959,
      "fat": 7960,
      "eff": 7961,
      "org": 7962,
      "strategy": 7963,
      "Commit": 7964,
      "bod": 7965,
      "fare": 7966,
      "labor": 7967,
      "guard": 7968,
      "purpose": 7969,
      "partners": 7970,
      "Leg": 7971,
      "Gl": 7972,
      "Afgh": 7973,
      "revealed": 7974,
      "hack": 7975,
      "learned": 7976,
      "Florida": 7977,
      "kid": 7978,
      "Ver": 7979,
      "gent": 7980,
      "stain": 7981,
      "showing": 7982,
      "Direct": 7983,
      "Pak": 7984,
      "b7": 7985,
      "Out": 7986,
      "Please": 7987,
      "prefer": 7988,
      "opinion": 7989,
      "conduct": 7990,
      "replace": 7991,
      "wealth": 7992,
      "Commission": 7993,
      "amaz": 7994,
      "rating": 7995,
      "aked": 7996,
      "lif": 7997,
      "del": 7998,
      "prosecut": 7999,
      "slight": 8000,
      "NFL": 8001,
      "Francis": 8002,
      "hus": 8003,
      "Back": 8004,
      "figh": 8005,
      "Prof": 8006,
      "provides": 8007,
      "operations": 8008,
      "Chris": 8009,
      "existing": 8010,
      ".'": 8011,
      "Rel": 8012,
      "Sil": 8013,
      "union": 8014,
      "interested": 8015,
      "ami": 8016,
      "generally": 8017,
      "solution": 8018,
      "Research": 8019,
      "heavy": 8020,
      "Mur": 8021,
      "arian": 8022,
      "temper": 8023,
      "dc": 8024,
      "makers": 8025,
      "defend": 8026,
      "patients": 8027,
      "MO": 8028,
      "iant": 8029,
      "belief": 8030,
      "confirmed": 8031,
      "fant": 8032,
      "supported": 8033,
      "hundreds": 8034,
      "brief": 8035,
      "ingly": 8036,
      "Brown": 8037,
      "sole": 8038,
      "profit": 8039,
      "ka": 8040,
      "acting": 8041,
      "basis": 8042,
      "Los": 8043,
      "testing": 8044,
      "runs": 8045,
      "edge": 8046,
      "views": 8047,
      "plus": 8048,
      "notes": 8049,
      "tells": 8050,
      "b0": 8051,
      "ava": 8052,
      "aling": 8053,
      "equip": 8054,
      "television": 8055,
      "shock": 8056,
      "patter": 8057,
      "Islamic": 8058,
      "ifying": 8059,
      "mentioned": 8060,
      "surround": 8061,
      "tough": 8062,
      "construction": 8063,
      "ored": 8064,
      "learning": 8065,
      "Both": 8066,
      "dire": 8067,
      "advoc": 8068,
      "ume": 8069,
      "ni": 8070,
      "definitely": 8071,
      "influence": 8072,
      "becoming": 8073,
      "Carol": 8074,
      "documents": 8075,
      "Despite": 8076,
      "fc": 8077,
      "Korea": 8078,
      "negative": 8079,
      "committee": 8080,
      "Jim": 8081,
      "judge": 8082,
      "professional": 8083,
      "fish": 8084,
      "ctors": 8085,
      "itter": 8086,
      "ams": 8087,
      "iful": 8088,
      "ule": 8089,
      "Fox": 8090,
      "SS": 8091,
      "IL": 8092,
      "electric": 8093,
      "north": 8094,
      "rum": 8095,
      "east": 8096,
      "valid": 8097,
      "explained": 8098,
      "Committee": 8099,
      "DC": 8100,
      "sch": 8101,
      "driving": 8102,
      "mir": 8103,
      "vs": 8104,
      "crash": 8105,
      "advantage": 8106,
      "nar": 8107,
      "rob": 8108,
      "dollars": 8109,
      "affic": 8110,
      "bour": 8111,
      "residents": 8112,
      "restrict": 8113,
      "eli": 8114,
      "Their": 8115,
      "miles": 8116,
      "infr": 8117,
      "uries": 8118,
      "tun": 8119,
      "machine": 8120,
      "Ukrain": 8121,
      "yes": 8122,
      "Afghan": 8123,
      "destroy": 8124,
      "abilities": 8125,
      "associated": 8126,
      "Pakistan": 8127,
      "PA": 8128,
      "ancy": 8129,
      "accused": 8130,
      "Service": 8131,
      "becomes": 8132,
      "rian": 8133,
      "bow": 8134,
      "husband": 8135,
      "b5": 8136,
      "accur": 8137,
      "inner": 8138,
      "tren": 8139,
      "initial": 8140,
      "Fire": 8141,
      "usual": 8142,
      "Miss": 8143,
      "odes": 8144,
      "farm": 8145,
      "Palest": 8146,
      "Jud": 8147,
      "minute": 8148,
      "achieve": 8149,
      "aj": 8150,
      "bottom": 8151,
      "Johnson": 8152,
      "ato": 8153,
      "faith": 8154,
      "iven": 8155,
      "occup": 8156,
      "solid": 8157,
      "pow": 8158,
      "mod": 8159,
      "employment": 8160,
      "err": 8161,
      "watching": 8162,
      "dete": 8163,
      "putting": 8164,
      "condition": 8165,
      "occas": 8166,
      "FBI": 8167,
      "writer": 8168,
      "spl": 8169,
      "shared": 8170,
      "bled": 8171,
      "blue": 8172,
      "sche": 8173,
      "communities": 8174,
      "scientists": 8175,
      "legislation": 8176,
      "ality": 8177,
      "double": 8178,
      "marijuana": 8179,
      "Comp": 8180,
      "announce": 8181,
      "keeping": 8182,
      "ga": 8183,
      "stone": 8184,
      "yal": 8185,
      "atures": 8186,
      "server": 8187,
      "Cup": 8188,
      "2005": 8189,
      "holding": 8190,
      "items": 8191,
      "fd": 8192,
      "flag": 8193,
      "zen": 8194,
      "proposed": 8195,
      "Web": 8196,
      "voted": 8197,
      "tests": 8198,
      "atically": 8199,
      "background": 8200,
      "rial": 8201,
      "Jewish": 8202,
      "victory": 8203,
      "hun": 8204,
      "controvers": 8205,
      "reduce": 8206,
      "wild": 8207,
      "stated": 8208,
      "issued": 8209,
      "famous": 8210,
      "Found": 8211,
      "consu": 8212,
      "negoti": 8213,
      "rupt": 8214,
      "Thomas": 8215,
      "Er": 8216,
      "heat": 8217,
      "leadership": 8218,
      "easier": 8219,
      "400": 8220,
      "management": 8221,
      "incredi": 8222,
      "banks": 8223,
      "victims": 8224,
      "sid": 8225,
      "missed": 8226,
      "cript": 8227,
      "debt": 8228,
      "floor": 8229,
      "bac": 8230,
      "trig": 8231,
      "dem": 8232,
      "episode": 8233,
      "Mat": 8234,
      "radio": 8235,
      "hearing": 8236,
      "notice": 8237,
      "drugs": 8238,
      "categ": 8239,
      "Open": 8240,
      "b6": 8241,
      "exer": 8242,
      "icy": 8243,
      "raise": 8244,
      "connect": 8245,
      "vin": 8246,
      "argument": 8247,
      "internet": 8248,
      "decade": 8249,
      "Yet": 8250,
      "constant": 8251,
      "false": 8252,
      "Jones": 8253,
      "dangerous": 8254,
      "returned": 8255,
      "tempor": 8256,
      "IV": 8257,
      "master": 8258,
      "mical": 8259,
      "Good": 8260,
      "theory": 8261,
      "species": 8262,
      "unit": 8263,
      "length": 8264,
      "worst": 8265,
      "launched": 8266,
      "dome": 8267,
      "identified": 8268,
      "Government": 8269,
      "accom": 8270,
      "ito": 8271,
      "restaur": 8272,
      "airs": 8273,
      "audience": 8274,
      "instance": 8275,
      "icated": 8276,
      "obtain": 8277,
      "score": 8278,
      "separate": 8279,
      "conservative": 8280,
      "strength": 8281,
      "investment": 8282,
      "Fore": 8283,
      "tools": 8284,
      "ining": 8285,
      "inch": 8286,
      "sto": 8287,
      "han": 8288,
      "memory": 8289,
      "commercial": 8290,
      "oppos": 8291,
      "Atl": 8292,
      "African": 8293,
      "repeated": 8294,
      "doubt": 8295,
      "IR": 8296,
      "owner": 8297,
      "Bank": 8298,
      "daughter": 8299,
      "ya": 8300,
      "supporters": 8301,
      "update": 8302,
      "domin": 8303,
      "fresh": 8304,
      "sleep": 8305,
      "none": 8306,
      "rep": 8307,
      "istics": 8308,
      "https": 8309,
      "crowd": 8310,
      "b3": 8311,
      "UT": 8312,
      "offensive": 8313,
      "believes": 8314,
      "lished": 8315,
      "ada": 8316,
      "conversation": 8317,
      "graphy": 8318,
      "2000": 8319,
      "hate": 8320,
      "Ros": 8321,
      "animals": 8322,
      "compar": 8323,
      "partner": 8324,
      "vation": 8325,
      "Institute": 8326,
      "homes": 8327,
      "hib": 8328,
      "Ms": 8329,
      "ered": 8330,
      "corporate": 8331,
      "older": 8332,
      "complet": 8333,
      "allowing": 8334,
      "rated": 8335,
      "novel": 8336,
      "anta": 8337,
      "Martin": 8338,
      "attor": 8339,
      "south": 8340,
      "driver": 8341,
      "stress": 8342,
      "focused": 8343,
      "Britain": 8344,
      "department": 8345,
      "pitch": 8346,
      "vehicle": 8347,
      "apt": 8348,
      "bling": 8349,
      "tip": 8350,
      "grant": 8351,
      "experiment": 8352,
      "Sol": 8353,
      "zone": 8354,
      "amed": 8355,
      "reform": 8356,
      "subscri": 8357,
      "iring": 8358,
      "degree": 8359,
      "Hor": 8360,
      "ault": 8361,
      "cro": 8362,
      "skin": 8363,
      "aker": 8364,
      "ounds": 8365,
      "discovered": 8366,
      "businesses": 8367,
      "witness": 8368,
      "bag": 8369,
      "plane": 8370,
      "Gar": 8371,
      "ester": 8372,
      "entirely": 8373,
      "Jeff": 8374,
      "traffic": 8375,
      "afford": 8376,
      "surface": 8377,
      "ght": 8378,
      "formation": 8379,
      "Bern": 8380,
      "HT": 8381,
      "Hu": 8382,
      "Android": 8383,
      "established": 8384,
      "lip": 8385,
      "NA": 8386,
      "commission": 8387,
      "CEO": 8388,
      "cash": 8389,
      "gro": 8390,
      "izes": 8391,
      "150": 8392,
      "PD": 8393,
      "nic": 8394,
      "Africa": 8395,
      "itude": 8396,
      "selling": 8397,
      "0000000000": 8398,
      "introduced": 8399,
      "finding": 8400,
      "missing": 8401,
      "abuse": 8402,
      "enses": 8403,
      "girls": 8404,
      "aran": 8405,
      "speaking": 8406,
      "register": 8407,
      "Gen": 8408,
      "Great": 8409,
      "aps": 8410,
      "please": 8411,
      "Gree": 8412,
      "ults": 8413,
      "brow": 8414,
      "iling": 8415,
      "guess": 8416,
      "concern": 8417,
      "Port": 8418,
      "Richard": 8419,
      "utin": 8420,
      "unk": 8421,
      "2018": 8422,
      "spoke": 8423,
      "Bal": 8424,
      "changing": 8425,
      "concerned": 8426,
      "Mexico": 8427,
      "ano": 8428,
      "seek": 8429,
      "plays": 8430,
      "pm": 8431,
      "shall": 8432,
      "azine": 8433,
      "waiting": 8434,
      "rent": 8435,
      "Shad": 8436,
      "transfer": 8437,
      "brary": 8438,
      "Israeli": 8439,
      "hair": 8440,
      "bid": 8441,
      "batter": 8442,
      "mine": 8443,
      "injury": 8444,
      "measures": 8445,
      "Home": 8446,
      "activities": 8447,
      "Secretary": 8448,
      "GOP": 8449,
      "earth": 8450,
      "located": 8451,
      "98": 8452,
      "tact": 8453,
      "porter": 8454,
      "construct": 8455,
      "lived": 8456,
      "suggested": 8457,
      "mes": 8458,
      "rout": 8459,
      "structure": 8460,
      "Church": 8461,
      "caught": 8462,
      "Team": 8463,
      "truly": 8464,
      "files": 8465,
      "mous": 8466,
      "Journal": 8467,
      "Men": 8468,
      "pto": 8469,
      "itation": 8470,
      "accident": 8471,
      "inct": 8472,
      "wear": 8473,
      "hasn": 8474,
      "sports": 8475,
      "phil": 8476,
      "competition": 8477,
      "Mary": 8478,
      "providing": 8479,
      "patch": 8480,
      "Ir": 8481,
      "Association": 8482,
      "Di": 8483,
      "finished": 8484,
      "fourth": 8485,
      "yards": 8486,
      "aks": 8487,
      "transport": 8488,
      "familiar": 8489,
      "andom": 8490,
      "aspect": 8491,
      "Watch": 8492,
      "champion": 8493,
      "steps": 8494,
      "direction": 8495,
      "LA": 8496,
      "vul": 8497,
      "\u0000\u0000\u0000\u0000\u0000\u0000\u0000\u0000\u0000\u0000\u0000\u0000\u0000\u0000\u0000\u0000\u0000\u0000\u0000\u0000\u0000\u0000\u0000\u0000\u0000\u0000\u0000\u0000\u0000\u0000\u0000\u0000\u0000\u0000\u0000\u0000\u0000\u0000\u0000\u0000\u0000\u0000\u0000\u0000\u0000\u0000\u0000\u0000\u0000\u0000\u0000\u0000\u0000\u0000\u0000\u0000\u0000\u0000\u0000\u0000\u0000\u0000\u0000\u0000\u0000\u0000\u0000\u0000\u0000\u0000\u0000\u0000\u0000\u0000\u0000\u0000\u0000\u0000\u0000\u0000\u0000\u0000\u0000\u0000\u0000\u0000\u0000\u0000\u0000\u0000\u0000\u0000\u0000\u0000\u0000\u0000\u0000\u0000\u0000\u0000\u0000\u0000\u0000\u0000\u0000\u0000\u0000\u0000\u0000\u0000\u0000\u0000\u0000\u0000\u0000\u0000\u0000\u0000\u0000\u0000\u0000\u0000\u0000\u0000\u0000\u0000\u0000\u0000\u0000\u0000\u0000\u0000\u0000\u0000\u0000\u0000\u0000\u0000\u0000\u0000\u0000\u0000\u0000\u0000\u0000\u0000\u0000\u0000\u0000\u0000\u0000\u0000\u0000\u0000\u0000\u0000\u0000\u0000\u0000\u0000\u0000\u0000\u0000\u0000\u0000\u0000\u0000\u0000\u0000\u0000\u0000\u0000\u0000\u0000\u0000\u0000\u0000\u0000\u0000\u0000\u0000\u0000\u0000\u0000\u0000\u0000\u0000\u0000\u0000\u0000\u0000\u0000\u0000\u0000\u0000\u0000\u0000\u0000\u0000\u0000\u0000\u0000\u0000\u0000\u0000\u0000\u0000\u0000\u0000\u0000\u0000\u0000\u0000\u0000\u0000\u0000\u0000\u0000\u0000\u0000\u0000\u0000\u0000\u0000\u0000\u0000\u0000\u0000\u0000\u0000\u0000\u0000\u0000\u0000\u0000\u0000\u0000\u0000\u0000\u0000\u0000\u0000\u0000\u0000\u0000\u0000\u0000\u0000\u0000\u0000\u0000\u0000\u0000\u0000\u0000\u0000\u0000\u0000\u0000\u0000\u0000\u0000\u0000\u0000\u0000\u0000\u0000\u0000\u0000\u0000\u0000\u0000\u0000\u0000\u0000\u0000\u0000\u0000\u0000\u0000\u0000\u0000\u0000\u0000\u0000\u0000\u0000\u0000\u0000\u0000\u0000\u0000\u0000\u0000\u0000\u0000\u0000\u0000\u0000\u0000\u0000\u0000\u0000\u0000\u0000\u0000\u0000\u0000\u0000\u0000\u0000\u0000\u0000\u0000\u0000\u0000\u0000\u0000\u0000\u0000\u0000\u0000\u0000\u0000\u0000\u0000\u0000\u0000\u0000\u0000\u0000\u0000\u0000\u0000\u0000\u0000\u0000\u0000\u0000\u0000\u0000\u0000\u0000\u0000\u0000\u0000\u0000\u0000\u0000\u0000\u0000\u0000\u0000\u0000\u0000\u0000\u0000\u0000\u0000\u0000\u0000\u0000\u0000\u0000\u0000\u0000\u0000\u0000\u0000\u0000\u0000\u0000\u0000\u0000\u0000\u0000\u0000\u0000\u0000\u0000\u0000\u0000\u0000\u0000\u0000\u0000\u0000\u0000\u0000\u0000\u0000\u0000\u0000\u0000\u0000\u0000\u0000\u0000\u0000\u0000\u0000\u0000\u0000\u0000\u0000\u0000\u0000\u0000\u0000\u0000\u0000\u0000\u0000\u0000\u0000\u0000\u0000\u0000\u0000\u0000\u0000\u0000\u0000\u0000\u0000\u0000\u0000\u0000\u0000\u0000\u0000\u0000\u0000\u0000\u0000\u0000\u0000\u0000\u0000\u0000\u0000\u0000\u0000\u0000\u0000\u0000\u0000\u0000\u0000\u0000\u0000\u0000\u0000\u0000\u0000\u0000\u0000\u0000\u0000\u0000\u0000\u0000\u0000\u0000\u0000\u0000\u0000\u0000\u0000\u0000\u0000\u0000\u0000\u0000\u0000\u0000\u0000\u0000\u0000\u0000\u0000\u0000\u0000\u0000\u0000\u0000\u0000\u0000\u0000\u0000\u0000\u0000\u0000\u0000\u0000\u0000\u0000\u0000\u0000\u0000\u0000\u0000\u0000\u0000\u0000\u0000\u0000\u0000\u0000\u0000\u0000\u0000": 8498,
      "candidates": 8499,
      "96": 8500,
      "Pac": 8501,
      "a7": 8502,
      "cook": 8503,
      "Group": 8504,
      "penal": 8505,
      "Bost": 8506,
      "lights": 8507,
      "b4": 8508,
      "consequ": 8509,
      "newsp": 8510,
      "Tre": 8511,
      "inger": 8512,
      "Book": 8513,
      "enforcement": 8514,
      "Ye": 8515,
      "Peter": 8516,
      "sky": 8517,
      "!”": 8518,
      "UR": 8519,
      "presents": 8520,
      "collection": 8521,
      "micro": 8522,
      "gypt": 8523,
      "Tri": 8524,
      "tweet": 8525,
      "assess": 8526,
      "Gal": 8527,
      "assault": 8528,
      "decisions": 8529,
      "shots": 8530,
      "1e": 8531,
      "Ama": 8532,
      "votes": 8533,
      "2e": 8534,
      "Life": 8535,
      "aggress": 8536,
      "funds": 8537,
      "annual": 8538,
      "draft": 8539,
      "reject": 8540,
      "cket": 8541,
      "lad": 8542,
      "1d": 8543,
      "requires": 8544,
      "Boston": 8545,
      "appre": 8546,
      "smaller": 8547,
      "figures": 8548,
      "presence": 8549,
      "largely": 8550,
      "Force": 8551,
      "connection": 8552,
      "grade": 8553,
      "rail": 8554,
      "Toronto": 8555,
      "insurance": 8556,
      "portion": 8557,
      "\":": 8558,
      "a8": 8559,
      "planning": 8560,
      "joined": 8561,
      "strike": 8562,
      "cancer": 8563,
      "loved": 8564,
      "exclus": 8565,
      "dat": 8566,
      "talent": 8567,
      "fi": 8568,
      "ounder": 8569,
      "lege": 8570,
      "onest": 8571,
      "Jes": 8572,
      "coverage": 8573,
      "arrived": 8574,
      "Louis": 8575,
      "Pan": 8576,
      "Egypt": 8577,
      "icial": 8578,
      "Den": 8579,
      "consul": 8580,
      "religion": 8581,
      "rig": 8582,
      "Ap": 8583,
      "Sou": 8584,
      "stopped": 8585,
      "cards": 8586,
      "thr": 8587,
      "identity": 8588,
      "Ryan": 8589,
      "removed": 8590,
      "managed": 8591,
      "USA": 8592,
      "susp": 8593,
      "marks": 8594,
      "Color": 8595,
      "dden": 8596,
      "mere": 8597,
      "irt": 8598,
      "Jon": 8599,
      "c8": 8600,
      "Ko": 8601,
      "committed": 8602,
      "Media": 8603,
      "initi": 8604,
      "ara": 8605,
      "exchange": 8606,
      "operating": 8607,
      "hang": 8608,
      "corner": 8609,
      "thanks": 8610,
      "carried": 8611,
      "appropriate": 8612,
      "gins": 8613,
      "faces": 8614,
      "starts": 8615,
      "lon": 8616,
      "sustain": 8617,
      "a6": 8618,
      "rou": 8619,
      "veter": 8620,
      "acknow": 8621,
      "park": 8622,
      "conflict": 8623,
      "Virgin": 8624,
      "nut": 8625,
      "actor": 8626,
      "spokesman": 8627,
      "Army": 8628,
      "fired": 8629,
      "oph": 8630,
      "spirit": 8631,
      "sides": 8632,
      "disease": 8633,
      "Look": 8634,
      "Bef": 8635,
      "Jose": 8636,
      "ships": 8637,
      "Images": 8638,
      "string": 8639,
      "refuge": 8640,
      "balance": 8641,
      "Free": 8642,
      "helps": 8643,
      "Hel": 8644,
      "award": 8645,
      "Central": 8646,
      "Before": 8647,
      "Angeles": 8648,
      "System": 8649,
      "domestic": 8650,
      "context": 8651,
      "PR": 8652,
      "adjust": 8653,
      "failure": 8654,
      "strateg": 8655,
      "isation": 8656,
      "Sa": 8657,
      "3d": 8658,
      "capac": 8659,
      "recommend": 8660,
      "f8": 8661,
      "phones": 8662,
      "spring": 8663,
      "prove": 8664,
      "secure": 8665,
      "applications": 8666,
      "paying": 8667,
      "Federal": 8668,
      "protection": 8669,
      "cells": 8670,
      "slightly": 8671,
      "broken": 8672,
      "Mod": 8673,
      "a0": 8674,
      "Japanese": 8675,
      "cks": 8676,
      "bigger": 8677,
      "turns": 8678,
      "healthy": 8679,
      "fle": 8680,
      "icide": 8681,
      "useful": 8682,
      "sight": 8683,
      "strain": 8684,
      "2d": 8685,
      "amazing": 8686,
      "Ari": 8687,
      "sudden": 8688,
      "IM": 8689,
      "armed": 8690,
      "cuts": 8691,
      "interests": 8692,
      "laugh": 8693,
      "Public": 8694,
      "auto": 8695,
      "lab": 8696,
      "lyn": 8697,
      "uty": 8698,
      "formed": 8699,
      "relatively": 8700,
      "Bitcoin": 8701,
      "olf": 8702,
      "therefore": 8703,
      "discussion": 8704,
      "optim": 8705,
      "****": 8706,
      "gg": 8707,
      "defensive": 8708,
      "erous": 8709,
      "outs": 8710,
      "Chief": 8711,
      "window": 8712,
      "killing": 8713,
      "expensive": 8714,
      "________": 8715,
      "icon": 8716,
      "trail": 8717,
      "finish": 8718,
      "holds": 8719,
      "delay": 8720,
      "chemical": 8721,
      "planet": 8722,
      "standards": 8723,
      "Mean": 8724,
      "Show": 8725,
      "constitution": 8726,
      "promise": 8727,
      "immigration": 8728,
      "fundam": 8729,
      "iders": 8730,
      "94": 8731,
      "SE": 8732,
      "athe": 8733,
      "Frank": 8734,
      "noon": 8735,
      "Getty": 8736,
      "rush": 8737,
      "igned": 8738,
      "Palestin": 8739,
      "andon": 8740,
      "Year": 8741,
      "feels": 8742,
      "multi": 8743,
      "authority": 8744,
      "3e": 8745,
      "remind": 8746,
      "liance": 8747,
      "Right": 8748,
      "igno": 8749,
      "ios": 8750,
      "brother": 8751,
      "techni": 8752,
      "taxes": 8753,
      "revolution": 8754,
      "possibly": 8755,
      "sounds": 8756,
      "Mel": 8757,
      "suff": 8758,
      "seeking": 8759,
      "eat": 8760,
      "download": 8761,
      "Phone": 8762,
      "suggests": 8763,
      "NH": 8764,
      "flight": 8765,
      "a5": 8766,
      "Supreme": 8767,
      "bass": 8768,
      "harm": 8769,
      "absolutely": 8770,
      "helping": 8771,
      "apparently": 8772,
      "uters": 8773,
      "planned": 8774,
      "button": 8775,
      "talks": 8776,
      "Syrian": 8777,
      "sale": 8778,
      "accounts": 8779,
      "intended": 8780,
      "Where": 8781,
      "supply": 8782,
      "keting": 8783,
      "1c": 8784,
      "Power": 8785,
      "f0": 8786,
      "itor": 8787,
      "academ": 8788,
      "vari": 8789,
      "organizations": 8790,
      "Carolina": 8791,
      "Night": 8792,
      "tag": 8793,
      "insp": 8794,
      "2004": 8795,
      "developing": 8796,
      "animal": 8797,
      "otherwise": 8798,
      "scientific": 8799,
      "happening": 8800,
      "Joe": 8801,
      "Australian": 8802,
      "markets": 8803,
      "developers": 8804,
      "reets": 8805,
      "tel": 8806,
      "environmental": 8807,
      "fortunately": 8808,
      "va": 8809,
      "bell": 8810,
      "surprising": 8811,
      "deploy": 8812,
      "0153": 8813,
      "skills": 8814,
      "bin": 8815,
      "swe": 8816,
      "apping": 8817,
      "models": 8818,
      "photos": 8819,
      "fellow": 8820,
      "consc": 8821,
      "housing": 8822,
      "unless": 8823,
      "Prime": 8824,
      "connected": 8825,
      "Only": 8826,
      "Turkey": 8827,
      "atest": 8828,
      "carbon": 8829,
      "appearance": 8830,
      "kin": 8831,
      "breaking": 8832,
      "College": 8833,
      "luck": 8834,
      "Cy": 8835,
      "circum": 8836,
      "increasingly": 8837,
      "ultimately": 8838,
      "switch": 8839,
      "boys": 8840,
      "beautiful": 8841,
      "seconds": 8842,
      "Maybe": 8843,
      "asks": 8844,
      "].": 8845,
      "cean": 8846,
      "bles": 8847,
      "survey": 8848,
      "f6": 8849,
      "uce": 8850,
      "pil": 8851,
      "97": 8852,
      "anda": 8853,
      "apers": 8854,
      "tight": 8855,
      "task": 8856,
      "professor": 8857,
      "Though": 8858,
      "awa": 8859,
      "lots": 8860,
      "Fur": 8861,
      "vast": 8862,
      "worry": 8863,
      "hase": 8864,
      "elections": 8865,
      "Hist": 8866,
      "IG": 8867,
      "Bow": 8868,
      "compon": 8869,
      "glass": 8870,
      "fly": 8871,
      "DE": 8872,
      "prop": 8873,
      "responsibility": 8874,
      "neighborhood": 8875,
      "decide": 8876,
      "Sign": 8877,
      "pression": 8878,
      "voting": 8879,
      "Project": 8880,
      "ibility": 8881,
      "AF": 8882,
      "f7": 8883,
      "council": 8884,
      "warning": 8885,
      "2c": 8886,
      "vant": 8887,
      "sitting": 8888,
      "mov": 8889,
      "stars": 8890,
      "possibility": 8891,
      "appeal": 8892,
      "ronic": 8893,
      "lap": 8894,
      "elected": 8895,
      "Far": 8896,
      "Mass": 8897,
      "fif": 8898,
      "mut": 8899,
      "Andrew": 8900,
      "Social": 8901,
      "oo": 8902,
      "Second": 8903,
      "filed": 8904,
      "Top": 8905,
      "Braz": 8906,
      "imin": 8907,
      "DP": 8908,
      "jail": 8909,
      "kins": 8910,
      "losing": 8911,
      "ups": 8912,
      "comfortable": 8913,
      "Human": 8914,
      "gue": 8915,
      "capable": 8916,
      "Foundation": 8917,
      "auth": 8918,
      "Haw": 8919,
      "princ": 8920,
      "sphere": 8921,
      "ko": 8922,
      "faced": 8923,
      "guns": 8924,
      "GO": 8925,
      "voc": 8926,
      "regarding": 8927,
      "4e": 8928,
      "Steve": 8929,
      "agencies": 8930,
      "dropped": 8931,
      "jour": 8932,
      "creation": 8933,
      "equal": 8934,
      "impossible": 8935,
      "AND": 8936,
      "vulner": 8937,
      "conscious": 8938,
      "McC": 8939,
      "alternative": 8940,
      "experts": 8941,
      "schedul": 8942,
      "Sing": 8943,
      "univers": 8944,
      "cred": 8945,
      "Still": 8946,
      "Bet": 8947,
      "Ze": 8948,
      "closer": 8949,
      "owned": 8950,
      "agent": 8951,
      "affected": 8952,
      "Francisco": 8953,
      "dress": 8954,
      "rot": 8955,
      "weather": 8956,
      "facing": 8957,
      "gor": 8958,
      "error": 8959,
      "flu": 8960,
      "0152": 8961,
      "aters": 8962,
      "troops": 8963,
      "4d": 8964,
      "gotten": 8965,
      "District": 8966,
      "Sour": 8967,
      "variety": 8968,
      "lan": 8969,
      "CP": 8970,
      "conce": 8971,
      "cycle": 8972,
      "advert": 8973,
      "twice": 8974,
      "pping": 8975,
      "territ": 8976,
      "truck": 8977,
      "ray": 8978,
      "ansion": 8979,
      "BBC": 8980,
      "positions": 8981,
      "ache": 8982,
      "regime": 8983,
      "Blue": 8984,
      "bringing": 8985,
      "sector": 8986,
      "Space": 8987,
      "Best": 8988,
      "soldiers": 8989,
      "bridge": 8990,
      "internal": 8991,
      "cultural": 8992,
      "modif": 8993,
      "pled": 8994,
      "clim": 8995,
      "Mont": 8996,
      "stance": 8997,
      "Jackson": 8998,
      "humans": 8999,
      "elements": 9000,
      "convict": 9001,
      "astru": 9002,
      "cles": 9003,
      "avy": 9004,
      "Mem": 9005,
      "ero": 9006,
      "rible": 9007,
      "prepared": 9008,
      "Ok": 9009,
      "broadcast": 9010,
      "Lee": 9011,
      "filled": 9012,
      "pull": 9013,
      "lym": 9014,
      "prospect": 9015,
      "Thank": 9016,
      "illa": 9017,
      "ensions": 9018,
      "Rock": 9019,
      "crack": 9020,
      "f5": 9021,
      "Dar": 9022,
      "ller": 9023,
      "poses": 9024,
      "About": 9025,
      "determined": 9026,
      "Amazon": 9027,
      "Camp": 9028,
      "Each": 9029,
      "prime": 9030,
      "ception": 9031,
      "Its": 9032,
      "rat": 9033,
      "abs": 9034,
      "reser": 9035,
      "medic": 9036,
      "passing": 9037,
      "guaran": 9038,
      "satis": 9039,
      "aces": 9040,
      "Bus": 9041,
      "conclus": 9042,
      "writ": 9043,
      "ki": 9044,
      "Conserv": 9045,
      "script": 9046,
      "boost": 9047,
      "estimated": 9048,
      "streets": 9049,
      "agues": 9050,
      "Rad": 9051,
      "ulate": 9052,
      "graphic": 9053,
      "plants": 9054,
      "listed": 9055,
      "Cle": 9056,
      "River": 9057,
      "presented": 9058,
      "CNN": 9059,
      "evil": 9060,
      "imagine": 9061,
      "termine": 9062,
      "opportun": 9063,
      "proto": 9064,
      "leads": 9065,
      "dram": 9066,
      "tally": 9067,
      "ours": 9068,
      "symbol": 9069,
      "Ev": 9070,
      "extr": 9071,
      "apply": 9072,
      "Fig": 9073,
      "igan": 9074,
      "shar": 9075,
      "perspect": 9076,
      "square": 9077,
      "Bob": 9078,
      "currency": 9079,
      "maxim": 9080,
      "rick": 9081,
      "attend": 9082,
      "Science": 9083,
      "gment": 9084,
      "uate": 9085,
      "experienced": 9086,
      "combat": 9087,
      "2001": 9088,
      "percentage": 9089,
      "consumers": 9090,
      "determine": 9091,
      "handle": 9092,
      "occurred": 9093,
      "astructure": 9094,
      "isher": 9095,
      "Daily": 9096,
      "Mich": 9097,
      "district": 9098,
      "Labour": 9099,
      "clin": 9100,
      "valu": 9101,
      "Attack": 9102,
      "pieces": 9103,
      "mm": 9104,
      "comed": 9105,
      "weapon": 9106,
      "cohol": 9107,
      "Down": 9108,
      "ador": 9109,
      "4c": 9110,
      "tradition": 9111,
      "Guard": 9112,
      "apart": 9113,
      "render": 9114,
      "anche": 9115,
      "violent": 9116,
      "Hall": 9117,
      "Blo": 9118,
      "FA": 9119,
      "faster": 9120,
      "1990": 9121,
      "approved": 9122,
      "expert": 9123,
      "surprise": 9124,
      "NAS": 9125,
      "proof": 9126,
      "Kel": 9127,
      "ISIS": 9128,
      "legit": 9129,
      "Arch": 9130,
      "controlled": 9131,
      "specifically": 9132,
      "Squ": 9133,
      "gry": 9134,
      "Max": 9135,
      "Cath": 9136,
      "philos": 9137,
      "zy": 9138,
      "eper": 9139,
      "eval": 9140,
      "apps": 9141,
      "mad": 9142,
      "solar": 9143,
      "refused": 9144,
      "sho": 9145,
      "lists": 9146,
      "treated": 9147,
      "seat": 9148,
      "random": 9149,
      "uration": 9150,
      "panel": 9151,
      "alle": 9152,
      "Reuters": 9153,
      "Paris": 9154,
      "olic": 9155,
      "ION": 9156,
      "governments": 9157,
      "potentially": 9158,
      "vehicles": 9159,
      "lit": 9160,
      "serving": 9161,
      "stances": 9162,
      "Afghanistan": 9163,
      "ride": 9164,
      "narr": 9165,
      "3c": 9166,
      "assum": 9167,
      "DO": 9168,
      "rapid": 9169,
      "Kar": 9170,
      "army": 9171,
      "pursu": 9172,
      "batt": 9173,
      "pointed": 9174,
      "conducted": 9175,
      "cold": 9176,
      "wearing": 9177,
      "....": 9178,
      "Bul": 9179,
      "Glo": 9180,
      "Ref": 9181,
      "Brazil": 9182,
      "oral": 9183,
      "ales": 9184,
      "twitter": 9185,
      "explos": 9186,
      "obviously": 9187,
      "BO": 9188,
      "remove": 9189,
      "CS": 9190,
      "Cru": 9191,
      "dish": 9192,
      "offee": 9193,
      "resol": 9194,
      "ashion": 9195,
      "gal": 9196,
      "uster": 9197,
      "1980": 9198,
      "useum": 9199,
      "broke": 9200,
      "Plan": 9201,
      "bby": 9202,
      "reaction": 9203,
      "shift": 9204,
      "plate": 9205,
      "adium": 9206,
      "shad": 9207,
      "married": 9208,
      "Real": 9209,
      "pin": 9210,
      "powers": 9211,
      "Vol": 9212,
      "ti": 9213,
      "units": 9214,
      "trick": 9215,
      "signs": 9216,
      "TS": 9217,
      "plenty": 9218,
      "listen": 9219,
      "Ron": 9220,
      "aircraft": 9221,
      "Sovie": 9222,
      "umn": 9223,
      "phy": 9224,
      "emergency": 9225,
      "bodies": 9226,
      "Spr": 9227,
      "Develo": 9228,
      "caption": 9229,
      "crimes": 9230,
      "attorney": 9231,
      "Meanwhile": 9232,
      "calcul": 9233,
      "methods": 9234,
      "ander": 9235,
      "defined": 9236,
      "tree": 9237,
      "eds": 9238,
      "severe": 9239,
      "letters": 9240,
      "sts": 9241,
      "complic": 9242,
      "retail": 9243,
      "offering": 9244,
      "Kur": 9245,
      "emails": 9246,
      "seriously": 9247,
      "],": 9248,
      "icient": 9249,
      "Sum": 9250,
      "Ul": 9251,
      "baby": 9252,
      "Note": 9253,
      "reduced": 9254,
      "Virginia": 9255,
      "Sports": 9256,
      "concent": 9257,
      "saving": 9258,
      "attach": 9259,
      "supporting": 9260,
      "declared": 9261,
      "Williams": 9262,
      "asp": 9263,
      "mi": 9264,
      "indeed": 9265,
      "privacy": 9266,
      "originally": 9267,
      "appreci": 9268,
      "expressed": 9269,
      "Middle": 9270,
      "identify": 9271,
      "pages": 9272,
      "recorded": 9273,
      "ruling": 9274,
      "bought": 9275,
      "evin": 9276,
      "basically": 9277,
      "significantly": 9278,
      "Director": 9279,
      "equipment": 9280,
      "Dou": 9281,
      "Week": 9282,
      "ologies": 9283,
      "factors": 9284,
      "moral": 9285,
      "challenges": 9286,
      "fold": 9287,
      "visual": 9288,
      "films": 9289,
      "Grand": 9290,
      "esterday": 9291,
      "hurt": 9292,
      "stret": 9293,
      "earn": 9294,
      "Cam": 9295,
      "->": 9296,
      "Thanks": 9297,
      "600": 9298,
      "politicians": 9299,
      "2003": 9300,
      "Key": 9301,
      "backs": 9302,
      "seasons": 9303,
      "illance": 9304,
      "greatest": 9305,
      "crew": 9306,
      "Hou": 9307,
      "recru": 9308,
      "iger": 9309,
      "parent": 9310,
      "Ire": 9311,
      "Seattle": 9312,
      "coast": 9313,
      "afternoon": 9314,
      "shape": 9315,
      "route": 9316,
      "weren": 9317,
      "Ten": 9318,
      "youth": 9319,
      "plot": 9320,
      "tested": 9321,
      "involve": 9322,
      "Scot": 9323,
      "00000003": 9324,
      "capacity": 9325,
      "technical": 9326,
      "amin": 9327,
      "Inde": 9328,
      "fairly": 9329,
      "collabor": 9330,
      "ruption": 9331,
      "embr": 9332,
      "venture": 9333,
      "opportunities": 9334,
      "Four": 9335,
      "atmo": 9336,
      "urban": 9337,
      "messages": 9338,
      "Again": 9339,
      "gia": 9340,
      "mouth": 9341,
      "Wood": 9342,
      "reference": 9343,
      "belong": 9344,
      "antly": 9345,
      "Hy": 9346,
      "hopes": 9347,
      "shel": 9348,
      "consistent": 9349,
      "Ru": 9350,
      "university": 9351,
      "metal": 9352,
      "Inc": 9353,
      "insist": 9354,
      "Island": 9355,
      "advance": 9356,
      "remained": 9357,
      "Whe": 9358,
      "ques": 9359,
      "movies": 9360,
      "igation": 9361,
      "Test": 9362,
      "Muslims": 9363,
      "appointed": 9364,
      "Matt": 9365,
      "sport": 9366,
      "contrast": 9367,
      "ordinary": 9368,
      "delivered": 9369,
      "excell": 9370,
      "talked": 9371,
      "distance": 9372,
      "decre": 9373,
      "Jews": 9374,
      "6d": 9375,
      "democracy": 9376,
      "Lat": 9377,
      "enh": 9378,
      "rising": 9379,
      "typically": 9380,
      "flood": 9381,
      "Ill": 9382,
      "ongoing": 9383,
      "dial": 9384,
      "craz": 9385,
      "warm": 9386,
      "Ukraine": 9387,
      "Bud": 9388,
      "rem": 9389,
      "honest": 9390,
      "opposed": 9391,
      "infrastructure": 9392,
      "Sher": 9393,
      "assem": 9394,
      "rog": 9395,
      "ulated": 9396,
      "secretary": 9397,
      "Bat": 9398,
      "fre": 9399,
      "sees": 9400,
      "Hen": 9401,
      "bike": 9402,
      "liberal": 9403,
      "considering": 9404,
      "purchase": 9405,
      "split": 9406,
      "NE": 9407,
      "root": 9408,
      "transl": 9409,
      "vey": 9410,
      "suffered": 9411,
      "Ram": 9412,
      "frust": 9413,
      "93": 9414,
      "los": 9415,
      "Call": 9416,
      "DS": 9417,
      "ureau": 9418,
      "Stan": 9419,
      "readers": 9420,
      "invent": 9421,
      "stim": 9422,
      "factor": 9423,
      "element": 9424,
      "profile": 9425,
      "mates": 9426,
      "ordered": 9427,
      "attempts": 9428,
      "datab": 9429,
      "Edit": 9430,
      "wave": 9431,
      "widely": 9432,
      "dynam": 9433,
      "Youn": 9434,
      "scor": 9435,
      "nd": 9436,
      "itz": 9437,
      "evening": 9438,
      "entertain": 9439,
      "evolution": 9440,
      "matters": 9441,
      "abort": 9442,
      "writes": 9443,
      "pictures": 9444,
      "VR": 9445,
      "causes": 9446,
      "Class": 9447,
      "py": 9448,
      "relevant": 9449,
      "emphas": 9450,
      "Medic": 9451,
      "trouble": 9452,
      "nab": 9453,
      "argued": 9454,
      "GM": 9455,
      "Penn": 9456,
      "Saudi": 9457,
      "beer": 9458,
      "00000010": 9459,
      "excited": 9460,
      "temporary": 9461,
      "pes": 9462,
      "ipal": 9463,
      "pulled": 9464,
      "moves": 9465,
      "industrial": 9466,
      "injured": 9467,
      "ogue": 9468,
      "totally": 9469,
      "2002": 9470,
      "heads": 9471,
      "quant": 9472,
      "guest": 9473,
      "Ireland": 9474,
      "NBA": 9475,
      "hall": 9476,
      "kno": 9477,
      "depth": 9478,
      "Kim": 9479,
      "ji": 9480,
      "Ener": 9481,
      "Rus": 9482,
      "fest": 9483,
      "articles": 9484,
      "explains": 9485,
      "OK": 9486,
      "alcohol": 9487,
      "ares": 9488,
      "editor": 9489,
      "institutions": 9490,
      "OL": 9491,
      "bug": 9492,
      "responded": 9493,
      "fashion": 9494,
      "stal": 9495,
      "Loc": 9496,
      "founder": 9497,
      "flash": 9498,
      "TR": 9499,
      "agents": 9500,
      "encing": 9501,
      "cab": 9502,
      "stands": 9503,
      "promised": 9504,
      "videos": 9505,
      "driven": 9506,
      "gon": 9507,
      "ader": 9508,
      "izon": 9509,
      "combined": 9510,
      "necessarily": 9511,
      "TA": 9512,
      "sac": 9513,
      "creative": 9514,
      "discrim": 9515,
      "magazine": 9516,
      "cluded": 9517,
      "fighters": 9518,
      "!\"": 9519,
      "Java": 9520,
      "endment": 9521,
      "Three": 9522,
      "intend": 9523,
      "Sea": 9524,
      "preced": 9525,
      "Bas": 9526,
      "friendly": 9527,
      "wins": 9528,
      "newspaper": 9529,
      "enemy": 9530,
      "wid": 9531,
      "revenue": 9532,
      "Hal": 9533,
      "raising": 9534,
      "western": 9535,
      "aine": 9536,
      "proposal": 9537,
      "Por": 9538,
      "rom": 9539,
      "Fil": 9540,
      "herself": 9541,
      "proced": 9542,
      "Road": 9543,
      "',": 9544,
      "Take": 9545,
      "yard": 9546,
      "instruct": 9547,
      "ani": 9548,
      "remaining": 9549,
      "motiv": 9550,
      "Polit": 9551,
      "Du": 9552,
      "relations": 9553,
      "linked": 9554,
      "c7": 9555,
      "utter": 9556,
      "NBC": 9557,
      "Py": 9558,
      "copyright": 9559,
      "Clar": 9560,
      "drag": 9561,
      "pal": 9562,
      "minimum": 9563,
      "motor": 9564,
      "radical": 9565,
      "fasc": 9566,
[...]
